#ifndef __QUANT_MODEL_ACT_H__
#define __QUANT_MODEL_ACT_H__
unsigned char model_tflite[] = {
  0x20, 0x00, 0x00, 0x00, 0x54, 0x46, 0x4c, 0x33, 0x00, 0x00, 0x00, 0x00,
  0x14, 0x00, 0x20, 0x00, 0x1c, 0x00, 0x18, 0x00, 0x14, 0x00, 0x10, 0x00,
  0x0c, 0x00, 0x00, 0x00, 0x08, 0x00, 0x04, 0x00, 0x14, 0x00, 0x00, 0x00,
  0x1c, 0x00, 0x00, 0x00, 0x88, 0x00, 0x00, 0x00, 0xe0, 0x00, 0x00, 0x00,
  0x9c, 0x2a, 0x00, 0x00, 0xac, 0x2a, 0x00, 0x00, 0x4c, 0x37, 0x00, 0x00,
  0x03, 0x00, 0x00, 0x00, 0x01, 0x00, 0x00, 0x00, 0x04, 0x00, 0x00, 0x00,
  0x9a, 0xd4, 0xff, 0xff, 0x0c, 0x00, 0x00, 0x00, 0x1c, 0x00, 0x00, 0x00,
  0x3c, 0x00, 0x00, 0x00, 0x0f, 0x00, 0x00, 0x00, 0x73, 0x65, 0x72, 0x76,
  0x69, 0x6e, 0x67, 0x5f, 0x64, 0x65, 0x66, 0x61, 0x75, 0x6c, 0x74, 0x00,
  0x01, 0x00, 0x00, 0x00, 0x04, 0x00, 0x00, 0x00, 0x94, 0xff, 0xff, 0xff,
  0x1a, 0x00, 0x00, 0x00, 0x04, 0x00, 0x00, 0x00, 0x0a, 0x00, 0x00, 0x00,
  0x73, 0x65, 0x71, 0x75, 0x65, 0x6e, 0x74, 0x69, 0x61, 0x6c, 0x00, 0x00,
  0x01, 0x00, 0x00, 0x00, 0x04, 0x00, 0x00, 0x00, 0x4e, 0xd5, 0xff, 0xff,
  0x04, 0x00, 0x00, 0x00, 0x0b, 0x00, 0x00, 0x00, 0x66, 0x69, 0x78, 0x65,
  0x64, 0x5f, 0x69, 0x6e, 0x70, 0x75, 0x74, 0x00, 0x02, 0x00, 0x00, 0x00,
  0x34, 0x00, 0x00, 0x00, 0x04, 0x00, 0x00, 0x00, 0xdc, 0xff, 0xff, 0xff,
  0x18, 0x00, 0x00, 0x00, 0x04, 0x00, 0x00, 0x00, 0x13, 0x00, 0x00, 0x00,
  0x43, 0x4f, 0x4e, 0x56, 0x45, 0x52, 0x53, 0x49, 0x4f, 0x4e, 0x5f, 0x4d,
  0x45, 0x54, 0x41, 0x44, 0x41, 0x54, 0x41, 0x00, 0x08, 0x00, 0x0c, 0x00,
  0x08, 0x00, 0x04, 0x00, 0x08, 0x00, 0x00, 0x00, 0x17, 0x00, 0x00, 0x00,
  0x04, 0x00, 0x00, 0x00, 0x13, 0x00, 0x00, 0x00, 0x6d, 0x69, 0x6e, 0x5f,
  0x72, 0x75, 0x6e, 0x74, 0x69, 0x6d, 0x65, 0x5f, 0x76, 0x65, 0x72, 0x73,
  0x69, 0x6f, 0x6e, 0x00, 0x19, 0x00, 0x00, 0x00, 0xb8, 0x29, 0x00, 0x00,
  0xb0, 0x29, 0x00, 0x00, 0x98, 0x29, 0x00, 0x00, 0x38, 0x29, 0x00, 0x00,
  0x48, 0x13, 0x00, 0x00, 0x98, 0x12, 0x00, 0x00, 0xe8, 0x11, 0x00, 0x00,
  0x38, 0x11, 0x00, 0x00, 0x88, 0x10, 0x00, 0x00, 0xe8, 0x0e, 0x00, 0x00,
  0x48, 0x0d, 0x00, 0x00, 0xa8, 0x0b, 0x00, 0x00, 0x08, 0x0a, 0x00, 0x00,
  0xc8, 0x07, 0x00, 0x00, 0x88, 0x05, 0x00, 0x00, 0x48, 0x03, 0x00, 0x00,
  0x08, 0x01, 0x00, 0x00, 0xe4, 0x00, 0x00, 0x00, 0xac, 0x00, 0x00, 0x00,
  0xa4, 0x00, 0x00, 0x00, 0x9c, 0x00, 0x00, 0x00, 0x94, 0x00, 0x00, 0x00,
  0x8c, 0x00, 0x00, 0x00, 0x6c, 0x00, 0x00, 0x00, 0x04, 0x00, 0x00, 0x00,
  0x2a, 0xd6, 0xff, 0xff, 0x04, 0x00, 0x00, 0x00, 0x58, 0x00, 0x00, 0x00,
  0x0c, 0x00, 0x00, 0x00, 0x08, 0x00, 0x0e, 0x00, 0x08, 0x00, 0x04, 0x00,
  0x08, 0x00, 0x00, 0x00, 0x10, 0x00, 0x00, 0x00, 0x28, 0x00, 0x00, 0x00,
  0x00, 0x00, 0x06, 0x00, 0x08, 0x00, 0x04, 0x00, 0x06, 0x00, 0x00, 0x00,
  0x04, 0x00, 0x00, 0x00, 0x01, 0x00, 0x00, 0x00, 0xeb, 0x03, 0x00, 0x00,
  0x00, 0x00, 0x0a, 0x00, 0x10, 0x00, 0x0c, 0x00, 0x08, 0x00, 0x04, 0x00,
  0x0a, 0x00, 0x00, 0x00, 0x02, 0x00, 0x00, 0x00, 0x02, 0x00, 0x00, 0x00,
  0x04, 0x00, 0x00, 0x00, 0x06, 0x00, 0x00, 0x00, 0x32, 0x2e, 0x31, 0x30,
  0x2e, 0x30, 0x00, 0x00, 0x8e, 0xd6, 0xff, 0xff, 0x04, 0x00, 0x00, 0x00,
  0x10, 0x00, 0x00, 0x00, 0x31, 0x2e, 0x31, 0x34, 0x2e, 0x30, 0x00, 0x00,
  0x00, 0x00, 0x00, 0x00, 0x00, 0x00, 0x00, 0x00, 0x38, 0xcb, 0xff, 0xff,
  0x3c, 0xcb, 0xff, 0xff, 0x40, 0xcb, 0xff, 0xff, 0x44, 0xcb, 0xff, 0xff,
  0xba, 0xd6, 0xff, 0xff, 0x04, 0x00, 0x00, 0x00, 0x28, 0x00, 0x00, 0x00,
  0x00, 0x10, 0x00, 0x10, 0x00, 0x10, 0x00, 0x10, 0x00, 0x10, 0x00, 0x10,
  0x00, 0x10, 0x00, 0x10, 0x00, 0x10, 0x00, 0x10, 0x00, 0x10, 0x00, 0x10,
  0x00, 0x10, 0x00, 0x10, 0x00, 0x10, 0x00, 0x10, 0x00, 0x10, 0x00, 0x10,
  0x00, 0x10, 0x00, 0x10, 0xee, 0xd6, 0xff, 0xff, 0x04, 0x00, 0x00, 0x00,
  0x14, 0x00, 0x00, 0x00, 0x00, 0x00, 0x00, 0x00, 0x00, 0x00, 0x00, 0x00,
  0x00, 0x00, 0x00, 0x00, 0x00, 0x00, 0x00, 0x00, 0x00, 0x00, 0x00, 0x00,
  0x0e, 0xd7, 0xff, 0xff, 0x04, 0x00, 0x00, 0x00, 0x30, 0x02, 0x00, 0x00,
  0xfe, 0x0d, 0xed, 0x9e, 0x8d, 0xb2, 0x8e, 0x83, 0xbb, 0xab, 0xc0, 0xb7,
  0xb1, 0xc4, 0xea, 0x04, 0x10, 0x16, 0x07, 0xf0, 0x09, 0x21, 0x0f, 0x0e,
  0xfc, 0x34, 0xe6, 0x09, 0xe0, 0x04, 0xec, 0xf4, 0xc4, 0xcb, 0xdb, 0x05,
  0x05, 0x49, 0x27, 0x23, 0x09, 0x1e, 0x48, 0x5b, 0x29, 0x48, 0x4f, 0x37,
  0x1d, 0x32, 0x32, 0x4f, 0x36, 0x12, 0x3e, 0x2e, 0xf6, 0xf4, 0x25, 0x26,
  0x11, 0x0e, 0x58, 0x34, 0xfb, 0x20, 0x05, 0xee, 0xe5, 0xfd, 0x0c, 0xfc,
  0x1b, 0x2d, 0xf7, 0x25, 0x12, 0xee, 0x0d, 0x2c, 0x4d, 0x6f, 0x3d, 0x09,
  0xea, 0xe1, 0x10, 0x16, 0x0c, 0xec, 0xf6, 0xe2, 0x06, 0x00, 0xea, 0xce,
  0xef, 0x02, 0x11, 0x06, 0x2e, 0x24, 0x46, 0x39, 0x12, 0x0f, 0x4f, 0x2e,
  0x44, 0x03, 0x3c, 0x21, 0xfc, 0xeb, 0xff, 0xa6, 0xef, 0x07, 0x2f, 0x18,
  0xea, 0xd3, 0x08, 0x18, 0x4c, 0xe6, 0xd1, 0xe7, 0x0a, 0x26, 0xf4, 0xec,
  0xe6, 0xfe, 0x33, 0x26, 0xe9, 0x10, 0x01, 0xfd, 0xfa, 0x0f, 0x2d, 0x57,
  0x55, 0x0c, 0x17, 0xfc, 0xec, 0xf9, 0xe5, 0xdd, 0x09, 0x35, 0x3d, 0x29,
  0x4f, 0x5a, 0x4e, 0x31, 0x49, 0x2c, 0x24, 0x52, 0x53, 0x05, 0x14, 0x0b,
  0x05, 0x16, 0x2a, 0x2b, 0xf4, 0xfa, 0x13, 0x13, 0xff, 0x24, 0xf8, 0xff,
  0xe9, 0xe5, 0x29, 0x1c, 0xed, 0xfc, 0x27, 0x48, 0x3f, 0x3e, 0x40, 0x3f,
  0x5d, 0x3d, 0x1d, 0x1c, 0xea, 0xeb, 0xd6, 0x32, 0x16, 0x01, 0x26, 0x32,
  0x01, 0xf4, 0xf9, 0xe9, 0xf2, 0xd9, 0xe0, 0xf4, 0xe5, 0x04, 0x09, 0x42,
  0x4f, 0x5a, 0x51, 0x45, 0x0a, 0xf1, 0xe2, 0xf3, 0xeb, 0xf9, 0x55, 0x7f,
  0x31, 0x44, 0x0e, 0x31, 0x2a, 0xde, 0xe4, 0xdd, 0xf6, 0xf3, 0xf2, 0xe4,
  0xeb, 0x05, 0x37, 0x6a, 0x5b, 0x6f, 0x42, 0x32, 0x31, 0xed, 0x4b, 0x20,
  0x01, 0xe3, 0x51, 0x50, 0x4d, 0x4a, 0x42, 0x11, 0x0b, 0xe6, 0xe7, 0xf8,
  0xf3, 0x08, 0x2b, 0x03, 0xe4, 0x05, 0x05, 0xf2, 0xe2, 0xec, 0x15, 0x10,
  0x1c, 0xef, 0x36, 0x49, 0xe7, 0x22, 0xf2, 0x07, 0xfd, 0xfb, 0x0f, 0x37,
  0x50, 0x3a, 0x56, 0xf7, 0xe8, 0x0a, 0x04, 0x29, 0x14, 0xfa, 0xeb, 0x07,
  0x19, 0x16, 0x13, 0xfe, 0x0a, 0x08, 0x09, 0x0a, 0x14, 0x1b, 0x40, 0x33,
  0x1d, 0x35, 0x27, 0x19, 0x12, 0x18, 0x34, 0x42, 0x16, 0xfe, 0xec, 0x23,
  0x42, 0x41, 0x10, 0xfe, 0x1a, 0x14, 0x4d, 0x5b, 0xf9, 0xc2, 0xe6, 0xee,
  0xfa, 0x06, 0xfd, 0x1e, 0x0a, 0xe0, 0x00, 0xdc, 0x16, 0xe4, 0xde, 0x16,
  0x2f, 0x46, 0x13, 0xeb, 0xe4, 0x12, 0x1a, 0xfc, 0xd3, 0xe8, 0x16, 0x29,
  0x48, 0x05, 0xf7, 0xc5, 0xf0, 0x14, 0xf6, 0xef, 0xd0, 0xf6, 0x2c, 0x0a,
  0xe4, 0xf7, 0x1a, 0x13, 0x2d, 0x35, 0x13, 0xf4, 0xc7, 0xe3, 0xe8, 0xcc,
  0xae, 0xcc, 0x00, 0x08, 0xcd, 0xbf, 0xe5, 0x18, 0x1c, 0x08, 0x01, 0x00,
  0xc8, 0xd9, 0xa6, 0xc6, 0xaa, 0xb7, 0x97, 0xb3, 0xe8, 0xff, 0x1e, 0x10,
  0x00, 0x16, 0xf1, 0x00, 0xfd, 0x1e, 0x03, 0xec, 0xfe, 0xe2, 0xdd, 0x21,
  0x05, 0x31, 0x38, 0x4d, 0x3b, 0x65, 0x6d, 0x5e, 0x06, 0x14, 0x44, 0x42,
  0x3d, 0x71, 0x2a, 0x1d, 0x08, 0x40, 0x53, 0x52, 0x32, 0x1a, 0x04, 0x01,
  0xfe, 0xec, 0x11, 0xf8, 0x06, 0xfe, 0xee, 0x21, 0xf7, 0x16, 0xfc, 0x09,
  0xec, 0x0e, 0x1a, 0x1f, 0x10, 0x15, 0x17, 0xe0, 0xeb, 0xcf, 0xd2, 0xff,
  0xdb, 0xdb, 0xc0, 0xae, 0xa6, 0xff, 0xe8, 0x29, 0xef, 0x42, 0x07, 0xd8,
  0xf3, 0xdf, 0xf5, 0x06, 0xe1, 0xe8, 0xbf, 0xcd, 0x32, 0x6b, 0x4f, 0x40,
  0x2d, 0x25, 0x1b, 0xec, 0xec, 0xf7, 0x00, 0xe9, 0xc8, 0xfb, 0x2e, 0x5e,
  0x1a, 0x4c, 0xf8, 0xd5, 0xe5, 0xe3, 0xcc, 0xbd, 0xdb, 0xf3, 0xcf, 0xcb,
  0xc3, 0xc0, 0x16, 0x23, 0x33, 0x19, 0xfe, 0xda, 0x00, 0xe0, 0xfe, 0xfc,
  0xcc, 0xf9, 0x47, 0x15, 0xfa, 0xdf, 0x01, 0x00, 0x4c, 0x04, 0xd8, 0xd7,
  0xf2, 0xea, 0x0c, 0x25, 0x61, 0x55, 0x3f, 0x26, 0x0c, 0x17, 0xef, 0x1f,
  0x07, 0x1d, 0x0c, 0x12, 0x03, 0x24, 0x1c, 0x03, 0x4a, 0xd9, 0xff, 0xff,
  0x04, 0x00, 0x00, 0x00, 0x30, 0x02, 0x00, 0x00, 0xe9, 0x28, 0xf3, 0x9a,
  0xaa, 0xd9, 0x20, 0x04, 0x2c, 0x1c, 0x42, 0x34, 0x46, 0x32, 0x13, 0xef,
  0xee, 0xe6, 0xe9, 0xf2, 0xe3, 0x26, 0x09, 0x3e, 0xfb, 0xd4, 0xf0, 0x46,
  0x1b, 0x22, 0xb9, 0xc5, 0xeb, 0xf0, 0xfc, 0x0e, 0xf9, 0xf6, 0x0e, 0xfb,
  0x31, 0x13, 0x0d, 0xeb, 0xdb, 0x0d, 0x18, 0xe1, 0xf8, 0x2b, 0x1b, 0x22,
  0x39, 0x36, 0xf2, 0x52, 0x06, 0xdb, 0x16, 0x21, 0x09, 0xfc, 0x02, 0xeb,
  0xf4, 0xdd, 0xed, 0xf7, 0xe7, 0x26, 0x24, 0x2d, 0xfc, 0x1f, 0xfd, 0xe4,
  0xe3, 0x06, 0xea, 0xfb, 0x00, 0x2f, 0xd8, 0x11, 0x1d, 0x03, 0xf0, 0x53,
  0x6c, 0x0a, 0x02, 0x1a, 0x30, 0x25, 0xde, 0xd8, 0xc9, 0x04, 0x07, 0x0d,
  0xfa, 0xd2, 0xf0, 0xf8, 0xfe, 0xfe, 0xfa, 0xd2, 0xa3, 0xe5, 0x68, 0x11,
  0x0a, 0xdb, 0x11, 0x0f, 0x04, 0x30, 0xee, 0x3d, 0x12, 0xdc, 0x04, 0x06,
  0x07, 0x2e, 0x20, 0xfb, 0x1f, 0xf5, 0xf7, 0xff, 0x09, 0x05, 0x3e, 0x01,
  0xba, 0x15, 0x1e, 0xd9, 0x17, 0xd6, 0xe6, 0x15, 0x0f, 0x1f, 0x2b, 0x21,
  0x26, 0x11, 0xe5, 0x04, 0xc9, 0xfe, 0xef, 0x0c, 0x06, 0xe4, 0xf7, 0x00,
  0x13, 0xcc, 0x00, 0xef, 0x19, 0xf8, 0x28, 0x20, 0xec, 0x27, 0x08, 0x24,
  0x6f, 0x02, 0x14, 0xea, 0x0a, 0xf6, 0xe7, 0xe4, 0xe8, 0x0f, 0x38, 0xf8,
  0xc6, 0xce, 0xf8, 0x30, 0x02, 0x0a, 0x2f, 0x0c, 0x01, 0x24, 0x1f, 0x2d,
  0x0e, 0x0e, 0xdb, 0xbc, 0x1e, 0x0b, 0xd7, 0x08, 0xf4, 0xec, 0xf9, 0x0a,
  0xf9, 0x33, 0x11, 0x1e, 0xf6, 0xc9, 0xb0, 0x9f, 0xc2, 0x0c, 0x2c, 0x4c,
  0x59, 0x15, 0xfa, 0x32, 0xf9, 0x19, 0x12, 0x06, 0xdd, 0xde, 0x02, 0x0c,
  0x0b, 0xf3, 0xf7, 0x02, 0xe6, 0xde, 0xfa, 0xea, 0x20, 0xf6, 0x18, 0xfe,
  0xeb, 0xec, 0x99, 0xc6, 0xbb, 0x03, 0xd7, 0x0a, 0x38, 0xc6, 0xe8, 0x64,
  0xdd, 0xb6, 0xf2, 0x07, 0x12, 0x25, 0x2a, 0x25, 0x11, 0xc4, 0xf6, 0xea,
  0xf5, 0xf6, 0x24, 0x47, 0x20, 0x06, 0xf6, 0xb0, 0x96, 0x81, 0xaf, 0x0e,
  0x08, 0x27, 0xd7, 0xe5, 0x16, 0x2a, 0x0e, 0x2d, 0x04, 0x14, 0x31, 0x23,
  0x26, 0xe0, 0xdd, 0xcb, 0xc2, 0xea, 0xfa, 0x0b, 0x0d, 0x3f, 0x14, 0x35,
  0x26, 0xe3, 0x15, 0x26, 0x26, 0x25, 0xfe, 0x0e, 0xe0, 0xff, 0xf3, 0xd4,
  0xcd, 0xaf, 0xb6, 0xb5, 0xd0, 0x30, 0x28, 0x4a, 0x35, 0xfe, 0xd3, 0x0b,
  0x08, 0x27, 0x2f, 0x06, 0x0f, 0x03, 0x04, 0x0c, 0x0a, 0xe7, 0x93, 0x20,
  0x2d, 0x2c, 0x22, 0x3f, 0xf8, 0xf4, 0x06, 0x0d, 0xe9, 0x03, 0xec, 0xd4,
  0xd4, 0x14, 0x14, 0xdb, 0xd9, 0xdf, 0xee, 0x0d, 0x7e, 0x4d, 0x0b, 0xd5,
  0xf5, 0xff, 0xd9, 0x03, 0xd4, 0x07, 0xe5, 0x18, 0x1d, 0x14, 0x17, 0x28,
  0x0d, 0x38, 0xef, 0x9e, 0xbf, 0xdf, 0xd1, 0x10, 0x3a, 0x49, 0x33, 0x41,
  0x0f, 0x1a, 0x38, 0xea, 0xdc, 0x2c, 0x18, 0x14, 0x1a, 0x52, 0x19, 0x1a,
  0x1b, 0xe1, 0xb9, 0xdd, 0x0d, 0xff, 0x00, 0x1f, 0x21, 0xfb, 0x20, 0xf7,
  0xde, 0x11, 0x0e, 0x1c, 0x26, 0x49, 0x09, 0xf1, 0xc5, 0xd0, 0xb9, 0x46,
  0x32, 0xf1, 0x0d, 0x08, 0x1b, 0x2d, 0xfa, 0xf1, 0xc8, 0x02, 0xe5, 0xe5,
  0xc1, 0xf0, 0xf1, 0xf8, 0xf0, 0xe4, 0xfb, 0xea, 0x06, 0x23, 0xf0, 0x09,
  0x01, 0x0a, 0x0d, 0x12, 0xea, 0x06, 0x2f, 0x16, 0x21, 0x10, 0xee, 0xe7,
  0xe2, 0xcf, 0xfc, 0xee, 0x22, 0x14, 0x17, 0xfd, 0x0c, 0xe6, 0x01, 0x36,
  0x1d, 0x23, 0xb5, 0xd4, 0x0c, 0xec, 0x9b, 0xd8, 0xf6, 0x05, 0xe7, 0x1c,
  0xf9, 0x10, 0x1a, 0x36, 0x0b, 0x1d, 0xd9, 0xae, 0xd6, 0xfb, 0x12, 0x4a,
  0xf2, 0xd4, 0xfa, 0xf2, 0xb7, 0xdb, 0xf9, 0x48, 0x1c, 0x27, 0x1b, 0x2c,
  0xf1, 0xc1, 0xe3, 0x06, 0x42, 0x1f, 0x36, 0xf7, 0xcd, 0x8f, 0xe4, 0x09,
  0x1f, 0x1b, 0x31, 0x1c, 0x34, 0x41, 0x2e, 0xff, 0x02, 0x20, 0x2a, 0x0c,
  0x2a, 0x5a, 0x2e, 0x29, 0x0e, 0xe7, 0x08, 0xed, 0xf0, 0x08, 0xf9, 0x12,
  0xcc, 0xda, 0xc9, 0x0f, 0xf2, 0xee, 0x02, 0xd8, 0xdb, 0x13, 0xf8, 0x06,
  0x40, 0xf5, 0x54, 0xe5, 0x86, 0xdb, 0xff, 0xff, 0x04, 0x00, 0x00, 0x00,
  0x30, 0x02, 0x00, 0x00, 0x03, 0x1b, 0x13, 0x09, 0x25, 0x12, 0x14, 0x12,
  0x3c, 0x41, 0x51, 0x5f, 0x4f, 0x31, 0x20, 0x0f, 0x12, 0xf2, 0x08, 0xfb,
  0x0c, 0xfa, 0x07, 0xfa, 0xf9, 0xe6, 0xea, 0xc6, 0xfc, 0x0b, 0x3e, 0xd5,
  0xc7, 0xd3, 0xd8, 0xe1, 0xe6, 0xd6, 0xd7, 0xca, 0xba, 0xe3, 0x17, 0x03,
  0xef, 0xfa, 0xf4, 0xe4, 0xf8, 0x08, 0xee, 0x1b, 0x1d, 0x26, 0x1c, 0x0a,
  0xed, 0x29, 0x11, 0x00, 0x1a, 0x09, 0x00, 0x12, 0x04, 0x14, 0x00, 0x04,
  0x10, 0x11, 0xef, 0xbf, 0x81, 0xb5, 0xe2, 0x97, 0xc2, 0xca, 0xc1, 0xc6,
  0x10, 0xf0, 0x0a, 0xf2, 0x04, 0x14, 0x15, 0x01, 0x07, 0x05, 0x17, 0x08,
  0x1c, 0x28, 0x2e, 0x0f, 0x01, 0x0a, 0x1b, 0x1b, 0x0c, 0x06, 0x0d, 0xfe,
  0xfb, 0x1d, 0xff, 0x0a, 0xfd, 0xfb, 0x38, 0x3d, 0xf9, 0x0f, 0x03, 0xee,
  0xff, 0xf1, 0x01, 0xe8, 0x03, 0x0b, 0xeb, 0xea, 0xe1, 0xfc, 0x0c, 0x13,
  0x0c, 0x16, 0x0b, 0x06, 0x0b, 0x02, 0x07, 0x09, 0xea, 0xd4, 0x04, 0xf2,
  0xfb, 0x1a, 0x23, 0x1b, 0x10, 0x1e, 0x08, 0x26, 0x20, 0x00, 0x14, 0x1d,
  0xed, 0xda, 0xf2, 0xd3, 0xdc, 0xe3, 0xf1, 0xf7, 0xf1, 0xf8, 0x1a, 0xfe,
  0xe4, 0xe3, 0xb3, 0x18, 0xd8, 0x42, 0x0a, 0x18, 0x03, 0xfd, 0xf7, 0xf8,
  0x00, 0xf4, 0xf8, 0x05, 0x07, 0xf3, 0xf1, 0xf9, 0xf9, 0x49, 0x4f, 0x0f,
  0x0d, 0xef, 0xf8, 0xfc, 0xf0, 0x17, 0x00, 0xe0, 0xfa, 0xe4, 0xf4, 0x27,
  0x05, 0x09, 0x02, 0xf2, 0xf8, 0x06, 0x06, 0xf8, 0xf9, 0x18, 0x15, 0x2e,
  0x29, 0x19, 0xf3, 0xe8, 0xe4, 0xe0, 0xe3, 0xde, 0xde, 0xf4, 0xf1, 0x1e,
  0xf4, 0xfc, 0x30, 0xfd, 0x0c, 0x12, 0x01, 0x1e, 0x0c, 0x0f, 0x04, 0x03,
  0x1e, 0x02, 0xfc, 0x0d, 0x12, 0x15, 0x1b, 0x0c, 0x1e, 0x0f, 0x1d, 0x08,
  0x36, 0x05, 0x40, 0x23, 0xee, 0x12, 0x37, 0x59, 0x53, 0x29, 0x3d, 0x2e,
  0x1c, 0x0a, 0xe5, 0xd4, 0xf5, 0x08, 0x1b, 0x07, 0x05, 0xf5, 0xfc, 0x1a,
  0x0a, 0x20, 0x12, 0x60, 0x4f, 0x25, 0x2d, 0x16, 0x00, 0xce, 0xdf, 0x00,
  0x26, 0x0c, 0xf7, 0x06, 0xe4, 0xd3, 0xe7, 0xdb, 0xdc, 0x18, 0x23, 0x19,
  0xf2, 0xef, 0xfd, 0x01, 0xfb, 0xfe, 0xe8, 0xf1, 0xfa, 0xf8, 0x08, 0xd9,
  0xee, 0x0f, 0x0b, 0x37, 0x03, 0x03, 0xfd, 0xe8, 0xfb, 0xf8, 0xf9, 0xfa,
  0x11, 0x3d, 0x25, 0xf3, 0x13, 0xf0, 0x25, 0x33, 0x2f, 0x28, 0x0c, 0x07,
  0x0d, 0xfd, 0xe9, 0xff, 0xe3, 0x06, 0x23, 0xf3, 0xff, 0xf2, 0x12, 0x0f,
  0xf7, 0x12, 0xf5, 0xf7, 0xf7, 0x18, 0x24, 0x15, 0x00, 0xd3, 0xe7, 0xf2,
  0x08, 0x0f, 0x31, 0x40, 0x66, 0x22, 0x07, 0x03, 0x16, 0xe9, 0xfc, 0x04,
  0xfc, 0x01, 0xf1, 0x01, 0xfb, 0x06, 0x00, 0xe9, 0xfd, 0xcd, 0xce, 0xfb,
  0x0e, 0xf2, 0x18, 0x21, 0x34, 0x26, 0x1a, 0x20, 0x0e, 0x09, 0x10, 0x20,
  0x20, 0xfb, 0xed, 0x0f, 0x15, 0x2f, 0x39, 0x3d, 0x2a, 0x3d, 0x2c, 0xce,
  0xcf, 0xcf, 0xf6, 0x06, 0xf1, 0x01, 0x01, 0xf5, 0xf8, 0xef, 0xe6, 0x00,
  0x13, 0x19, 0xeb, 0x24, 0x3b, 0x0d, 0x20, 0x17, 0x1d, 0x10, 0x14, 0xfe,
  0x09, 0x01, 0x14, 0x10, 0xe1, 0x92, 0xb6, 0xf4, 0x05, 0x05, 0xf7, 0x0b,
  0x02, 0x01, 0x17, 0xf4, 0x1a, 0xdd, 0xdb, 0x2c, 0x0c, 0xec, 0xfc, 0xe2,
  0x01, 0x01, 0x05, 0xf7, 0xfb, 0xfc, 0xf4, 0xfa, 0xf8, 0xe5, 0x1b, 0x0c,
  0x29, 0x3b, 0x2b, 0x58, 0x4f, 0x50, 0x64, 0x56, 0x50, 0x44, 0xe1, 0xe0,
  0xf9, 0xdf, 0x1b, 0xee, 0xd5, 0x08, 0xf2, 0xe2, 0xda, 0xe7, 0xf1, 0x14,
  0x1b, 0x1b, 0xe6, 0xcc, 0xe1, 0xf4, 0xff, 0x18, 0x11, 0x18, 0x1a, 0x24,
  0x2b, 0xf9, 0xdf, 0xe4, 0xc3, 0xc8, 0xdd, 0xe1, 0x1d, 0xd7, 0xef, 0xef,
  0xde, 0xd5, 0xea, 0xd7, 0xc8, 0x21, 0x2c, 0x15, 0x1a, 0x18, 0x10, 0x0d,
  0x13, 0x0e, 0x0e, 0x29, 0xc8, 0xb6, 0xa7, 0xe1, 0xef, 0x0f, 0x19, 0x12,
  0x0d, 0x09, 0x0f, 0x0a, 0xff, 0x00, 0x1a, 0x04, 0x14, 0x0f, 0x0d, 0x0e,
  0xfc, 0x09, 0x0e, 0x0f, 0x0e, 0x0d, 0x10, 0x09, 0xfe, 0xf1, 0xff, 0x11,
  0xc2, 0xdd, 0xff, 0xff, 0x04, 0x00, 0x00, 0x00, 0x30, 0x02, 0x00, 0x00,
  0xfa, 0x27, 0xfe, 0xd8, 0xe4, 0xad, 0xe6, 0x0d, 0x1f, 0x1e, 0x2c, 0x18,
  0x10, 0x16, 0x07, 0x26, 0x57, 0x74, 0x6f, 0x68, 0x65, 0x64, 0x41, 0x1f,
  0x1b, 0xe3, 0xfc, 0x09, 0x0c, 0x15, 0xeb, 0xfe, 0xd0, 0xd3, 0xe4, 0xf0,
  0x0c, 0x0e, 0x17, 0xf1, 0xff, 0x04, 0x0d, 0x32, 0x25, 0x12, 0x08, 0x20,
  0x1b, 0x0f, 0x24, 0x05, 0xdb, 0x01, 0x22, 0x1d, 0x00, 0x19, 0x17, 0x22,
  0x0e, 0x10, 0xec, 0xf9, 0xed, 0xfb, 0xda, 0xfc, 0xdc, 0xd6, 0xec, 0xeb,
  0xf9, 0xe8, 0xec, 0xfb, 0xeb, 0xec, 0x02, 0xe7, 0xff, 0x39, 0x3b, 0x13,
  0x0a, 0xf2, 0xeb, 0x00, 0x25, 0x17, 0x0c, 0x38, 0x1f, 0xec, 0xee, 0xf9,
  0x2f, 0x29, 0x36, 0x3d, 0x1f, 0x46, 0xff, 0x0f, 0xff, 0x24, 0x25, 0x43,
  0x21, 0xde, 0x19, 0xf1, 0x0d, 0xd9, 0x07, 0x05, 0xd6, 0xd7, 0x0d, 0x0a,
  0x1a, 0x26, 0x3a, 0x56, 0x3f, 0x34, 0x0e, 0x01, 0x10, 0x19, 0xe3, 0xeb,
  0x14, 0xfc, 0xff, 0xbc, 0xf2, 0xf8, 0x10, 0x22, 0xf9, 0xf8, 0x25, 0x51,
  0x1a, 0x0c, 0xfc, 0xe2, 0xc7, 0xdf, 0xd6, 0x00, 0x0c, 0x1f, 0x23, 0x29,
  0x43, 0x3b, 0x26, 0x0b, 0x22, 0x26, 0x25, 0x21, 0x13, 0xf8, 0xe4, 0xf6,
  0x01, 0x23, 0xf9, 0x05, 0x0f, 0x0d, 0xfc, 0x31, 0x3a, 0x29, 0x20, 0x04,
  0xe5, 0x37, 0x5b, 0x3a, 0x1c, 0x01, 0xe7, 0xf7, 0x04, 0x14, 0x0a, 0xe1,
  0xd1, 0x0c, 0x36, 0x23, 0x08, 0x08, 0x14, 0x1f, 0x17, 0xfc, 0xe8, 0xf3,
  0xd4, 0xe4, 0xee, 0x1b, 0x1b, 0x29, 0x29, 0x15, 0xfd, 0xbb, 0xc9, 0xd3,
  0xf8, 0xf2, 0x1b, 0x1a, 0x2a, 0x36, 0xfe, 0xea, 0x0a, 0x07, 0x0e, 0x2e,
  0x2e, 0x33, 0x14, 0xf7, 0xf9, 0xf6, 0x0a, 0x4e, 0x43, 0x34, 0x17, 0x25,
  0x04, 0xd3, 0x04, 0x26, 0x3d, 0x34, 0x21, 0x05, 0x48, 0x28, 0x32, 0x00,
  0x1b, 0x01, 0xe3, 0xcd, 0xc4, 0xc8, 0xcc, 0xd0, 0xfa, 0xe7, 0x1b, 0x29,
  0x29, 0x3f, 0x3d, 0xfe, 0xf8, 0x0b, 0x10, 0x1b, 0x07, 0xed, 0x07, 0xdf,
  0xf3, 0x26, 0x2b, 0x34, 0xf0, 0x04, 0xe7, 0xf7, 0x2d, 0x01, 0x06, 0x22,
  0x1b, 0x1b, 0x00, 0x02, 0xf6, 0x0d, 0x17, 0x1f, 0x02, 0xe6, 0xeb, 0x00,
  0x23, 0x16, 0xf8, 0x0c, 0xf5, 0xfd, 0x0c, 0x10, 0x05, 0x19, 0x24, 0x23,
  0x2a, 0x0d, 0xff, 0xed, 0xec, 0xf8, 0x03, 0xf1, 0xe4, 0xf1, 0x12, 0x37,
  0x73, 0x48, 0x02, 0xf1, 0xee, 0xe0, 0xed, 0xea, 0xf4, 0xe9, 0xfe, 0xe6,
  0x25, 0xf9, 0xe9, 0xdc, 0xe3, 0xe9, 0x14, 0x0b, 0xf6, 0xdf, 0xe6, 0x0d,
  0x03, 0x0b, 0x02, 0x09, 0x31, 0x3d, 0x17, 0xd4, 0xc6, 0xd0, 0x02, 0x0b,
  0x01, 0xff, 0xe4, 0xe7, 0xe6, 0xfb, 0xf7, 0x0a, 0xd1, 0xc5, 0xf1, 0xe6,
  0x11, 0x04, 0x28, 0x40, 0x43, 0x1d, 0xed, 0xfa, 0x13, 0x10, 0x36, 0x1d,
  0x3a, 0x5f, 0x6b, 0x68, 0x07, 0xeb, 0x0e, 0x3b, 0xf4, 0xf2, 0xf3, 0x45,
  0x57, 0x39, 0x47, 0x7f, 0x7e, 0x55, 0x14, 0x0f, 0x00, 0xf3, 0x07, 0xdf,
  0xf7, 0xfc, 0x0a, 0x0e, 0x00, 0xff, 0x1e, 0x06, 0x06, 0x04, 0x09, 0x1e,
  0x12, 0x26, 0x0e, 0x13, 0xfa, 0xeb, 0xde, 0xe1, 0xdf, 0xff, 0x04, 0x18,
  0xfe, 0xfb, 0x01, 0xf8, 0x1d, 0xff, 0xff, 0x28, 0x00, 0x10, 0x22, 0x34,
  0x1b, 0x29, 0x17, 0x0b, 0x10, 0x10, 0xff, 0x47, 0x04, 0x23, 0x2d, 0x44,
  0x63, 0x6e, 0x36, 0x3b, 0x16, 0x26, 0x04, 0xe8, 0x08, 0xf8, 0x00, 0x1f,
  0x16, 0x0b, 0x0c, 0x11, 0x16, 0x37, 0xf7, 0x09, 0x0a, 0x07, 0xed, 0xf6,
  0xee, 0xc3, 0xd5, 0xe4, 0xe9, 0x0b, 0x2a, 0x59, 0x5f, 0x59, 0x26, 0x0b,
  0xf0, 0x11, 0x01, 0xfe, 0xea, 0xea, 0xfd, 0xed, 0xef, 0xf6, 0x2f, 0x31,
  0xf1, 0xfb, 0x07, 0xf7, 0xef, 0xe4, 0xf2, 0x1f, 0x65, 0x3f, 0x2c, 0x22,
  0xfa, 0xe3, 0xe6, 0xf9, 0x21, 0x38, 0x29, 0x15, 0x09, 0xf1, 0xda, 0xb8,
  0xc5, 0xd3, 0xfe, 0x20, 0x03, 0xf8, 0xf7, 0xf3, 0xeb, 0xf4, 0xf8, 0x04,
  0x0e, 0x14, 0x0f, 0x2c, 0x10, 0x1e, 0x2a, 0x37, 0x3e, 0x17, 0xf8, 0x12,
  0x0d, 0x09, 0x02, 0xfb, 0x1c, 0x1b, 0x07, 0xff, 0xfe, 0xdf, 0xff, 0xff,
  0x04, 0x00, 0x00, 0x00, 0x90, 0x01, 0x00, 0x00, 0x4c, 0xd7, 0xe4, 0x19,
  0xea, 0xfe, 0x18, 0xf0, 0xe6, 0xd4, 0xf6, 0x0e, 0x05, 0xd6, 0x24, 0xfb,
  0x1e, 0x0a, 0xde, 0x16, 0xf8, 0x3f, 0xdd, 0x6c, 0x35, 0xb2, 0x09, 0x48,
  0x21, 0x3c, 0x15, 0xbe, 0xee, 0x11, 0x1a, 0x25, 0x4f, 0x9a, 0x41, 0x0b,
  0xef, 0xfc, 0x27, 0xe5, 0xc9, 0x10, 0x00, 0xf8, 0x17, 0xd5, 0xd8, 0x26,
  0x3e, 0xda, 0x0c, 0x11, 0x04, 0xf3, 0xb5, 0x12, 0xf5, 0x06, 0x05, 0xef,
  0xd6, 0xe3, 0xdf, 0xe5, 0x19, 0xfa, 0x27, 0xf9, 0x1b, 0xbe, 0xfb, 0xf5,
  0xd0, 0xe9, 0xfa, 0xe2, 0xde, 0x17, 0xd1, 0x43, 0xfb, 0xf8, 0xfc, 0x10,
  0x25, 0x1b, 0xef, 0xe0, 0xcb, 0x4c, 0x10, 0x01, 0x02, 0xb8, 0x37, 0x1b,
  0x23, 0x25, 0x33, 0x3b, 0xe3, 0xf6, 0xf3, 0xff, 0xf5, 0xe6, 0x36, 0x10,
  0xfa, 0xd6, 0x0f, 0x1e, 0xd4, 0x13, 0x1f, 0xde, 0xbf, 0xeb, 0x13, 0xf4,
  0xda, 0x39, 0xcc, 0xea, 0x00, 0xda, 0xe4, 0x19, 0x32, 0x0b, 0x0f, 0x06,
  0xef, 0x14, 0xcc, 0x18, 0xed, 0xd5, 0xf1, 0x19, 0xde, 0x1a, 0x0d, 0x15,
  0xf3, 0x09, 0xf8, 0x1d, 0x2f, 0x0a, 0xa8, 0xd5, 0x35, 0xd2, 0xee, 0x5a,
  0x18, 0xcf, 0x00, 0xf4, 0xdf, 0xfd, 0xf8, 0xc4, 0x07, 0x13, 0xc6, 0x27,
  0xfc, 0xc6, 0xe9, 0xc9, 0xf4, 0xef, 0xfe, 0xe6, 0xe1, 0x16, 0xe0, 0xb8,
  0xfc, 0xdd, 0xf4, 0xdd, 0xea, 0x0d, 0x04, 0xe4, 0x23, 0x1b, 0xdf, 0xe7,
  0xfd, 0x17, 0xe2, 0x18, 0x31, 0x1f, 0xd5, 0x23, 0x51, 0xbb, 0x00, 0x03,
  0xd4, 0x12, 0xf2, 0xec, 0xec, 0x1d, 0xeb, 0xca, 0xde, 0xf9, 0xf4, 0x17,
  0x17, 0xfb, 0x4b, 0xdc, 0x1d, 0x23, 0xca, 0x1e, 0x31, 0xda, 0xfd, 0xc6,
  0xfb, 0xf9, 0x1e, 0x20, 0xdb, 0x25, 0xcb, 0x20, 0x2e, 0x0a, 0xed, 0x0e,
  0xdb, 0xd4, 0x25, 0xb5, 0xe3, 0xf6, 0xf7, 0x41, 0xed, 0x0b, 0xd5, 0xc5,
  0xfa, 0x37, 0xf6, 0x08, 0x11, 0x0d, 0xef, 0x05, 0xc0, 0xf6, 0x38, 0xe8,
  0xa4, 0x1a, 0xe3, 0xf4, 0xfb, 0x2a, 0xfc, 0xf3, 0xf6, 0xc2, 0x07, 0xe6,
  0xee, 0xde, 0xe9, 0x25, 0xde, 0x30, 0xed, 0xf6, 0xf3, 0x29, 0xc6, 0xf6,
  0x13, 0xe7, 0x4a, 0xe5, 0xd7, 0xe9, 0x09, 0x12, 0x04, 0xec, 0xd1, 0x13,
  0xdb, 0x0f, 0x46, 0xe0, 0x68, 0x21, 0xb1, 0x2b, 0x33, 0x1a, 0x26, 0x14,
  0x1e, 0xe3, 0xfe, 0xf3, 0x3f, 0xde, 0x89, 0x23, 0xef, 0xd5, 0x3d, 0xd9,
  0xcb, 0xf4, 0xe4, 0x4c, 0x16, 0xfb, 0xd3, 0xb9, 0x06, 0xca, 0x08, 0x20,
  0xa1, 0x24, 0x13, 0xe9, 0xbe, 0xfb, 0xf0, 0x08, 0xe5, 0x11, 0x3b, 0x24,
  0x27, 0xf0, 0x02, 0x03, 0xef, 0x00, 0x19, 0x14, 0xe7, 0xfd, 0xb8, 0xed,
  0xf2, 0x3f, 0x2a, 0xf9, 0xe0, 0x1f, 0xf2, 0xe8, 0xb0, 0x14, 0x19, 0x1b,
  0x2d, 0x06, 0xe9, 0xf6, 0x1c, 0x0c, 0x3b, 0x13, 0x14, 0xe4, 0x06, 0x48,
  0x1a, 0x16, 0x3f, 0x31, 0x1e, 0xae, 0x1c, 0x15, 0xe6, 0xec, 0x4b, 0x81,
  0x9a, 0xe1, 0xff, 0xff, 0x04, 0x00, 0x00, 0x00, 0x90, 0x01, 0x00, 0x00,
  0x8c, 0x2e, 0xeb, 0xb3, 0x29, 0xfc, 0xb6, 0x44, 0xf8, 0x13, 0x49, 0xf1,
  0xd8, 0x30, 0x09, 0xfe, 0x0e, 0xf0, 0x60, 0xc5, 0xd0, 0x0f, 0x11, 0xcd,
  0x44, 0xd7, 0xed, 0x4a, 0xfa, 0x07, 0x16, 0xc8, 0xcb, 0xc5, 0xd0, 0xda,
  0xc4, 0xae, 0x3b, 0x96, 0xf1, 0xfa, 0x1d, 0xd6, 0xef, 0x52, 0x0e, 0x06,
  0xc4, 0x05, 0xea, 0x44, 0x1d, 0xde, 0x0d, 0x17, 0x7f, 0xcb, 0xef, 0x09,
  0xf4, 0xce, 0xaa, 0x08, 0x35, 0xe5, 0x19, 0x29, 0x3e, 0xdc, 0xe3, 0xdb,
  0x3d, 0x12, 0xdf, 0xf5, 0x11, 0x1e, 0x14, 0x2b, 0xfc, 0x14, 0xb7, 0x22,
  0x28, 0x96, 0x15, 0x20, 0x33, 0x30, 0xdb, 0xfe, 0xdd, 0x3e, 0xee, 0x0c,
  0xff, 0xe1, 0x4f, 0x10, 0xb1, 0xf1, 0x35, 0x2f, 0x44, 0xfd, 0xd7, 0x79,
  0x6f, 0x31, 0xe7, 0x18, 0x28, 0x0d, 0xe1, 0xf3, 0xdc, 0xaf, 0x48, 0xf7,
  0xf7, 0x17, 0xfd, 0xa9, 0xdb, 0x16, 0x0a, 0xf3, 0x18, 0x10, 0x14, 0x29,
  0xf4, 0x10, 0x07, 0xec, 0x19, 0x38, 0xf6, 0x13, 0x2d, 0x0e, 0xee, 0xe5,
  0x1c, 0x09, 0xf6, 0x0e, 0xbe, 0x4b, 0xfb, 0xfb, 0x09, 0x0b, 0x29, 0xfe,
  0xdf, 0x2f, 0x15, 0x09, 0x23, 0xf4, 0x26, 0xea, 0x10, 0xf6, 0xfe, 0xd6,
  0x07, 0xe9, 0xbc, 0x19, 0xe0, 0x05, 0xf2, 0x05, 0xf9, 0x4d, 0xed, 0x20,
  0x9e, 0xe6, 0x03, 0xcd, 0xf8, 0x49, 0xd5, 0x4b, 0x63, 0xf7, 0xff, 0x11,
  0xf0, 0x1b, 0xd1, 0x2a, 0xf7, 0xa2, 0x45, 0xd3, 0xf9, 0x0f, 0x2f, 0xf0,
  0x45, 0xae, 0xe9, 0x41, 0x34, 0xde, 0xe1, 0x20, 0x02, 0xe0, 0xbc, 0xfe,
  0xdb, 0x05, 0x2f, 0x2b, 0xcf, 0xe7, 0xea, 0x09, 0x0a, 0x05, 0xfd, 0x55,
  0x50, 0x0d, 0x21, 0x48, 0xfb, 0xbb, 0x34, 0xf4, 0x13, 0xe9, 0x0c, 0x03,
  0x17, 0xce, 0xff, 0xde, 0x1c, 0x19, 0xe6, 0xe4, 0x50, 0xe5, 0xf9, 0x05,
  0xd3, 0x97, 0xb5, 0xed, 0xda, 0x0e, 0xa6, 0x49, 0x18, 0x0e, 0x50, 0x90,
  0x3b, 0x2e, 0xda, 0x1b, 0xf0, 0x08, 0x0e, 0x91, 0xd5, 0xd6, 0xdd, 0xdf,
  0xa7, 0x46, 0xc4, 0xf1, 0xd1, 0x04, 0xe0, 0xfa, 0x0f, 0x1d, 0xea, 0x25,
  0x23, 0xfb, 0xd8, 0xf6, 0xda, 0x03, 0x0d, 0xd2, 0x13, 0x0e, 0xee, 0xe3,
  0x0d, 0xf7, 0xe8, 0xf3, 0x5a, 0xe0, 0x24, 0x18, 0x1a, 0x21, 0x04, 0x40,
  0x27, 0xa9, 0x03, 0x17, 0x11, 0xe4, 0xf8, 0xfb, 0x29, 0x09, 0xfc, 0xfc,
  0x1c, 0xd7, 0x02, 0x31, 0x13, 0x9e, 0x1b, 0xb1, 0x01, 0xa4, 0x4d, 0x20,
  0xf0, 0x4c, 0xc6, 0xa0, 0xfb, 0xf0, 0x21, 0x95, 0xe0, 0x0b, 0xe1, 0x14,
  0x09, 0xab, 0xc4, 0x0d, 0xc6, 0x23, 0x36, 0xfd, 0x0b, 0x0d, 0xaa, 0x1d,
  0xb8, 0x1f, 0xe6, 0x1c, 0xf7, 0x1e, 0x24, 0x02, 0x72, 0xeb, 0xd6, 0x25,
  0x01, 0x32, 0xf6, 0x08, 0xf5, 0xbd, 0xd4, 0xea, 0xe9, 0xbb, 0xc6, 0xfd,
  0xd9, 0xc6, 0x46, 0x6c, 0x2f, 0x2d, 0xd4, 0x1a, 0xf6, 0xe8, 0xe9, 0x13,
  0xfc, 0xcb, 0x2e, 0xe2, 0x36, 0xe3, 0xff, 0xff, 0x04, 0x00, 0x00, 0x00,
  0x90, 0x01, 0x00, 0x00, 0xfb, 0x2d, 0x23, 0xcb, 0x41, 0xb4, 0x2f, 0xf6,
  0x44, 0x07, 0x1f, 0xf9, 0x0e, 0x46, 0x10, 0x57, 0xfa, 0xff, 0x38, 0xe6,
  0xbd, 0xf9, 0xbf, 0x64, 0xfc, 0x05, 0x01, 0x11, 0xbc, 0x38, 0xf9, 0x06,
  0xc6, 0x1b, 0x05, 0xfd, 0xf6, 0xde, 0x02, 0xf4, 0x13, 0x38, 0x36, 0x17,
  0xda, 0xc2, 0x03, 0xcd, 0x20, 0x22, 0x0e, 0xb4, 0x1f, 0xfb, 0x11, 0x18,
  0xc2, 0x7f, 0xb9, 0xe8, 0xfd, 0x00, 0x18, 0x10, 0x2e, 0x19, 0xc9, 0x30,
  0x6e, 0x05, 0x16, 0xe5, 0xbe, 0x4b, 0x3a, 0x70, 0xf2, 0xff, 0x0b, 0xfc,
  0xb6, 0x43, 0xc8, 0xdb, 0xfe, 0x06, 0xf2, 0x33, 0xb4, 0x2d, 0x11, 0x12,
  0xe8, 0xe3, 0x85, 0x09, 0x07, 0xe0, 0x36, 0xe4, 0x47, 0xb4, 0x39, 0x0f,
  0x12, 0x3b, 0x15, 0x18, 0x11, 0xca, 0xb3, 0x0b, 0x03, 0xfd, 0x17, 0xbd,
  0x53, 0xd0, 0xbb, 0x33, 0x87, 0xdb, 0xe7, 0x15, 0x0f, 0x0d, 0x30, 0x08,
  0x2c, 0xe8, 0x00, 0x41, 0xe4, 0x30, 0x42, 0xea, 0x3a, 0xe7, 0xe4, 0xf8,
  0xab, 0xf8, 0x47, 0xc4, 0x12, 0x2f, 0xc6, 0x0a, 0x05, 0x0e, 0x10, 0xec,
  0xe6, 0xe2, 0xd2, 0x0e, 0xe2, 0xc9, 0xfa, 0xe8, 0x02, 0x31, 0xf5, 0xb3,
  0x50, 0x0d, 0xad, 0x06, 0x1e, 0xea, 0x36, 0x8f, 0xcf, 0x10, 0xf1, 0x21,
  0xce, 0x4f, 0xc5, 0xd5, 0xbd, 0xec, 0xde, 0xf6, 0x0d, 0x36, 0xee, 0x3f,
  0x00, 0x11, 0xfa, 0x10, 0xe0, 0x55, 0xee, 0xdd, 0x3f, 0xce, 0x3c, 0x14,
  0x0e, 0x13, 0x13, 0x36, 0xa9, 0x40, 0xe3, 0xea, 0x17, 0x0c, 0x20, 0xc6,
  0xfa, 0x15, 0x1e, 0x36, 0x37, 0xff, 0xc8, 0xe0, 0x16, 0x3b, 0x51, 0x0e,
  0xd8, 0x2d, 0xf4, 0xe2, 0xfd, 0xfd, 0x07, 0xf3, 0x2d, 0xe7, 0x31, 0x0b,
  0xe6, 0x06, 0x30, 0x05, 0x1b, 0x1a, 0x01, 0x0c, 0x1e, 0xe6, 0xbd, 0xd0,
  0xf4, 0xef, 0x1d, 0x09, 0x2b, 0xc8, 0xf4, 0xeb, 0xcf, 0xcb, 0xe6, 0xf7,
  0x0c, 0xf6, 0xc1, 0x13, 0x2f, 0x00, 0xd6, 0xd5, 0xbd, 0xbc, 0xe5, 0xd3,
  0x1f, 0x21, 0xf4, 0xf9, 0x23, 0x35, 0x0f, 0x21, 0xec, 0x07, 0x0d, 0x02,
  0x33, 0x5b, 0xe7, 0x00, 0x10, 0x03, 0xfa, 0x36, 0x1c, 0x27, 0x20, 0x0b,
  0xe0, 0x1e, 0xdb, 0xec, 0xd4, 0x25, 0x11, 0xae, 0xdb, 0x27, 0xdf, 0x0f,
  0x34, 0xc9, 0x0e, 0xe3, 0xc7, 0x47, 0x1d, 0x35, 0x19, 0x27, 0xad, 0xf6,
  0x1b, 0xfd, 0x3f, 0xe4, 0x01, 0x0c, 0xde, 0x32, 0x47, 0xa6, 0x18, 0x01,
  0x1e, 0xfa, 0x47, 0xea, 0x0c, 0x08, 0x20, 0x06, 0xe7, 0x1c, 0xfa, 0x10,
  0x2d, 0x14, 0x17, 0x3a, 0xb1, 0x41, 0x41, 0x3f, 0x09, 0xb5, 0xbd, 0x0d,
  0x2d, 0x09, 0x20, 0xfa, 0xa5, 0x22, 0xd7, 0xd5, 0xf6, 0x4f, 0xff, 0x03,
  0xf3, 0x28, 0x09, 0xcd, 0xe6, 0x48, 0xe9, 0x09, 0x26, 0x18, 0xeb, 0x0a,
  0xe1, 0x25, 0x61, 0x16, 0x44, 0xa7, 0xfd, 0x13, 0x5a, 0xf6, 0x1b, 0x11,
  0x11, 0xc3, 0xab, 0xf5, 0xb2, 0x17, 0xdf, 0xe5, 0xd2, 0xe4, 0xff, 0xff,
  0x04, 0x00, 0x00, 0x00, 0x90, 0x01, 0x00, 0x00, 0x45, 0xd1, 0xb4, 0x1a,
  0x11, 0xd7, 0x68, 0xfa, 0x06, 0x25, 0xfc, 0xf9, 0xdd, 0x29, 0x0e, 0xe4,
  0x6a, 0x8b, 0xf6, 0xf1, 0x10, 0x0a, 0xa6, 0x19, 0x4c, 0xc7, 0x2f, 0x4f,
  0xef, 0x4e, 0xe2, 0xc9, 0xe3, 0xcf, 0xdd, 0xc1, 0x03, 0xcd, 0x65, 0xf6,
  0x0c, 0xd9, 0xdd, 0x3f, 0xab, 0x08, 0x0b, 0xf7, 0x35, 0x0e, 0xe6, 0x2a,
  0xfe, 0xe0, 0x1c, 0x20, 0xea, 0xf2, 0xe1, 0x10, 0x07, 0xdf, 0xd0, 0x13,
  0xf2, 0xe2, 0x42, 0x0a, 0x0a, 0x39, 0xbf, 0x44, 0xb9, 0xeb, 0xcc, 0xa9,
  0x25, 0xf4, 0x19, 0x13, 0xfe, 0xe1, 0x15, 0x5d, 0xb3, 0x4a, 0x24, 0xc6,
  0x11, 0x24, 0x05, 0x05, 0xd9, 0x03, 0x15, 0x22, 0xe0, 0x81, 0xe5, 0x1e,
  0x21, 0xf1, 0xe5, 0x3b, 0xe3, 0x0a, 0x18, 0xf5, 0xdf, 0x36, 0x0f, 0x6b,
  0xe7, 0x05, 0xdd, 0x00, 0x04, 0xe5, 0x69, 0xfb, 0x75, 0xef, 0x03, 0x18,
  0x0f, 0xda, 0xe5, 0xe6, 0x29, 0xfc, 0xc1, 0x6d, 0x6a, 0xba, 0xd3, 0xc2,
  0xfd, 0xff, 0x10, 0x7a, 0x1b, 0xef, 0xef, 0xf8, 0xf4, 0x1f, 0x13, 0xeb,
  0xcc, 0x14, 0xed, 0x41, 0x32, 0xc9, 0xba, 0xb9, 0xd3, 0xd4, 0xd7, 0x39,
  0x43, 0xa2, 0x05, 0x04, 0xdc, 0x21, 0xdf, 0xe2, 0x27, 0xd1, 0xda, 0x36,
  0x60, 0xb9, 0xef, 0xdc, 0xef, 0xe9, 0xb4, 0xfd, 0x15, 0x19, 0xfe, 0x48,
  0xfe, 0x06, 0x15, 0xd7, 0x29, 0x15, 0x21, 0x35, 0xf5, 0x25, 0xc6, 0x0d,
  0x13, 0xf8, 0xe6, 0xff, 0x39, 0xda, 0xcf, 0x2d, 0x0b, 0x17, 0x2e, 0xd0,
  0xe1, 0x02, 0xc2, 0x0c, 0x15, 0xfb, 0x03, 0xa2, 0x1f, 0x1b, 0x05, 0x39,
  0x0d, 0xd4, 0x0b, 0xf1, 0x20, 0x11, 0xfa, 0x21, 0x63, 0xa9, 0xe0, 0x27,
  0xfb, 0xe6, 0x2a, 0xff, 0xe0, 0xb9, 0xcf, 0x0d, 0xe1, 0x17, 0xf9, 0x1a,
  0x9f, 0x06, 0x7b, 0x94, 0x1e, 0xcd, 0x0b, 0x39, 0xe3, 0x22, 0x2a, 0xf4,
  0xd7, 0x07, 0xf2, 0xfa, 0x00, 0x06, 0xb3, 0x2d, 0xda, 0x11, 0x3d, 0x94,
  0xfb, 0x60, 0x9a, 0xea, 0x0a, 0xfd, 0xe5, 0xfe, 0xf6, 0xf2, 0x2b, 0x1e,
  0xc5, 0xf7, 0xee, 0x4a, 0xef, 0x31, 0x18, 0xf5, 0xe1, 0x3e, 0x0e, 0x1c,
  0x0e, 0xee, 0x14, 0x03, 0xe7, 0xab, 0x2d, 0x0d, 0x13, 0xe0, 0xd6, 0x24,
  0xf2, 0x2e, 0x2f, 0xf1, 0x0e, 0xdf, 0xeb, 0x28, 0x2e, 0xd1, 0x07, 0xfd,
  0xfa, 0xe5, 0x05, 0xf0, 0x48, 0x92, 0x9c, 0x1f, 0xcb, 0xf7, 0x26, 0xfa,
  0xf8, 0x0e, 0xbc, 0x3b, 0x16, 0xb3, 0xb8, 0xb3, 0x45, 0xfc, 0xdc, 0x13,
  0xeb, 0x1a, 0xd5, 0x09, 0xb7, 0xf4, 0x08, 0xcb, 0xe9, 0xf4, 0xf0, 0x49,
  0x21, 0xa1, 0x96, 0xd4, 0x19, 0x07, 0x26, 0x0c, 0x2c, 0xae, 0xea, 0x14,
  0xcd, 0x21, 0x09, 0xc8, 0xf8, 0xd7, 0xdf, 0x0d, 0x10, 0x28, 0x31, 0xf4,
  0x23, 0xbd, 0xd6, 0xfd, 0x17, 0xca, 0xe2, 0x30, 0xd4, 0x00, 0x57, 0x20,
  0x12, 0x01, 0xc9, 0xf6, 0xee, 0xd1, 0xb7, 0xc1, 0x23, 0xa5, 0x13, 0x14,
  0x6e, 0xe6, 0xff, 0xff, 0x04, 0x00, 0x00, 0x00, 0xa0, 0x00, 0x00, 0x00,
  0xee, 0x33, 0x09, 0x00, 0x00, 0x00, 0x00, 0x00, 0x89, 0xad, 0xfb, 0xff,
  0xff, 0xff, 0xff, 0xff, 0x9b, 0xb1, 0x32, 0x00, 0x00, 0x00, 0x00, 0x00,
  0x00, 0x3b, 0x00, 0x00, 0x00, 0x00, 0x00, 0x00, 0xf6, 0x0e, 0x05, 0x00,
  0x00, 0x00, 0x00, 0x00, 0x88, 0x08, 0xfc, 0xff, 0xff, 0xff, 0xff, 0xff,
  0xfd, 0x57, 0x01, 0x00, 0x00, 0x00, 0x00, 0x00, 0x61, 0xaf, 0x0f, 0x00,
  0x00, 0x00, 0x00, 0x00, 0xcf, 0x6d, 0x18, 0x00, 0x00, 0x00, 0x00, 0x00,
  0x5f, 0xa0, 0x10, 0x00, 0x00, 0x00, 0x00, 0x00, 0x79, 0x71, 0x03, 0x00,
  0x00, 0x00, 0x00, 0x00, 0x99, 0x76, 0xf3, 0xff, 0xff, 0xff, 0xff, 0xff,
  0x58, 0x30, 0x14, 0x00, 0x00, 0x00, 0x00, 0x00, 0x64, 0xf5, 0x0d, 0x00,
  0x00, 0x00, 0x00, 0x00, 0xda, 0xd1, 0x12, 0x00, 0x00, 0x00, 0x00, 0x00,
  0x27, 0xc8, 0x2c, 0x00, 0x00, 0x00, 0x00, 0x00, 0xdc, 0xd1, 0x11, 0x00,
  0x00, 0x00, 0x00, 0x00, 0x7a, 0x3d, 0x03, 0x00, 0x00, 0x00, 0x00, 0x00,
  0xda, 0xda, 0x12, 0x00, 0x00, 0x00, 0x00, 0x00, 0x31, 0x5b, 0xe7, 0xff,
  0xff, 0xff, 0xff, 0xff, 0x1a, 0xe7, 0xff, 0xff, 0x04, 0x00, 0x00, 0x00,
  0xa0, 0x00, 0x00, 0x00, 0xf2, 0x13, 0x47, 0x00, 0x00, 0x00, 0x00, 0x00,
  0xed, 0xa4, 0x49, 0x00, 0x00, 0x00, 0x00, 0x00, 0xdf, 0xcc, 0x50, 0x00,
  0x00, 0x00, 0x00, 0x00, 0xde, 0xdf, 0x50, 0x00, 0x00, 0x00, 0x00, 0x00,
  0x00, 0xec, 0x3f, 0x00, 0x00, 0x00, 0x00, 0x00, 0xfc, 0xe3, 0x41, 0x00,
  0x00, 0x00, 0x00, 0x00, 0x69, 0x6d, 0x4b, 0x00, 0x00, 0x00, 0x00, 0x00,
  0xe5, 0x63, 0x4d, 0x00, 0x00, 0x00, 0x00, 0x00, 0x72, 0xcd, 0x46, 0x00,
  0x00, 0x00, 0x00, 0x00, 0x76, 0x37, 0x45, 0x00, 0x00, 0x00, 0x00, 0x00,
  0xef, 0x92, 0x48, 0x00, 0x00, 0x00, 0x00, 0x00, 0x73, 0x54, 0x46, 0x00,
  0x00, 0x00, 0x00, 0x00, 0x5b, 0xa2, 0x52, 0x00, 0x00, 0x00, 0x00, 0x00,
  0xe6, 0x03, 0x4d, 0x00, 0x00, 0x00, 0x00, 0x00, 0x58, 0x0f, 0x54, 0x00,
  0x00, 0x00, 0x00, 0x00, 0x5c, 0x2c, 0x52, 0x00, 0x00, 0x00, 0x00, 0x00,
  0x88, 0x41, 0x3c, 0x00, 0x00, 0x00, 0x00, 0x00, 0x61, 0x7d, 0x4f, 0x00,
  0x00, 0x00, 0x00, 0x00, 0xe2, 0xfb, 0x4e, 0x00, 0x00, 0x00, 0x00, 0x00,
  0xe3, 0x6e, 0x4e, 0x00, 0x00, 0x00, 0x00, 0x00, 0xc6, 0xe7, 0xff, 0xff,
  0x04, 0x00, 0x00, 0x00, 0xa0, 0x00, 0x00, 0x00, 0x92, 0xc2, 0xf6, 0xff,
  0xff, 0xff, 0xff, 0xff, 0x74, 0x2f, 0x06, 0x00, 0x00, 0x00, 0x00, 0x00,
  0x72, 0xdd, 0x06, 0x00, 0x00, 0x00, 0x00, 0x00, 0x8d, 0xaf, 0xf9, 0xff,
  0xff, 0xff, 0xff, 0xff, 0xfa, 0xd3, 0x02, 0x00, 0x00, 0x00, 0x00, 0x00,
  0xfb, 0x8f, 0x02, 0x00, 0x00, 0x00, 0x00, 0x00, 0x84, 0x19, 0xfe, 0xff,
  0xff, 0xff, 0xff, 0xff, 0x0d, 0x4b, 0xf9, 0xff, 0xff, 0xff, 0xff, 0xff,
  0x0d, 0x54, 0xf9, 0xff, 0xff, 0xff, 0xff, 0xff, 0x8d, 0xbc, 0xf9, 0xff,
  0xff, 0xff, 0xff, 0xff, 0xfc, 0x29, 0x02, 0x00, 0x00, 0x00, 0x00, 0x00,
  0x10, 0x38, 0xf8, 0xff, 0xff, 0xff, 0xff, 0xff, 0xef, 0x7f, 0x08, 0x00,
  0x00, 0x00, 0x00, 0x00, 0x85, 0x96, 0xfd, 0xff, 0xff, 0xff, 0xff, 0xff,
  0x80, 0x3f, 0x00, 0x00, 0x00, 0x00, 0x00, 0x00, 0xf2, 0xe5, 0x06, 0x00,
  0x00, 0x00, 0x00, 0x00, 0x0a, 0x30, 0xfb, 0xff, 0xff, 0xff, 0xff, 0xff,
  0x08, 0x11, 0xfc, 0xff, 0xff, 0xff, 0xff, 0xff, 0x8f, 0x42, 0xf8, 0xff,
  0xff, 0xff, 0xff, 0xff, 0x94, 0x1c, 0xf6, 0xff, 0xff, 0xff, 0xff, 0xff,
  0x72, 0xe8, 0xff, 0xff, 0x04, 0x00, 0x00, 0x00, 0xa0, 0x00, 0x00, 0x00,
  0xbe, 0xc7, 0x20, 0x00, 0x00, 0x00, 0x00, 0x00, 0x5b, 0x43, 0x12, 0x00,
  0x00, 0x00, 0x00, 0x00, 0x46, 0x29, 0x1d, 0x00, 0x00, 0x00, 0x00, 0x00,
  0xee, 0x10, 0x09, 0x00, 0x00, 0x00, 0x00, 0x00, 0x84, 0x0b, 0xfe, 0xff,
  0xff, 0xff, 0xff, 0xff, 0x66, 0xd2, 0x0c, 0x00, 0x00, 0x00, 0x00, 0x00,
  0xe5, 0x8f, 0x0d, 0x00, 0x00, 0x00, 0x00, 0x00, 0xef, 0x6d, 0x08, 0x00,
  0x00, 0x00, 0x00, 0x00, 0xd1, 0x4f, 0x17, 0x00, 0x00, 0x00, 0x00, 0x00,
  0x76, 0x37, 0x05, 0x00, 0x00, 0x00, 0x00, 0x00, 0x61, 0x7f, 0x0f, 0x00,
  0x00, 0x00, 0x00, 0x00, 0xeb, 0x61, 0x0a, 0x00, 0x00, 0x00, 0x00, 0x00,
  0xf0, 0xd7, 0x07, 0x00, 0x00, 0x00, 0x00, 0x00, 0xd5, 0x71, 0x15, 0x00,
  0x00, 0x00, 0x00, 0x00, 0x6b, 0x95, 0x0a, 0x00, 0x00, 0x00, 0x00, 0x00,
  0xc3, 0x91, 0x1e, 0x00, 0x00, 0x00, 0x00, 0x00, 0x3f, 0x9e, 0x20, 0x00,
  0x00, 0x00, 0x00, 0x00, 0xdc, 0x29, 0x12, 0x00, 0x00, 0x00, 0x00, 0x00,
  0xe0, 0xe6, 0x0f, 0x00, 0x00, 0x00, 0x00, 0x00, 0x65, 0xba, 0x0d, 0x00,
  0x00, 0x00, 0x00, 0x00, 0x1e, 0xe9, 0xff, 0xff, 0x04, 0x00, 0x00, 0x00,
  0xe0, 0x15, 0x00, 0x00, 0x1a, 0xea, 0xf4, 0x1a, 0xf6, 0x04, 0x07, 0x10,
  0x09, 0x10, 0xe9, 0xf2, 0xe2, 0x0a, 0xe9, 0xed, 0x19, 0xff, 0x16, 0x1f,
  0x13, 0xec, 0xe8, 0x13, 0xef, 0xec, 0x26, 0x1e, 0x1d, 0x1d, 0xf2, 0x01,
  0xe1, 0x01, 0xdc, 0xdf, 0x24, 0x03, 0x0d, 0x13, 0x04, 0x0c, 0xf3, 0xe6,
  0xf5, 0x10, 0x03, 0xf6, 0xec, 0x15, 0x08, 0xdd, 0xec, 0x26, 0xe0, 0x00,
  0x02, 0x12, 0x10, 0xef, 0xcc, 0x26, 0x0b, 0xd5, 0x0a, 0x19, 0xe9, 0x1a,
  0xc1, 0xf7, 0x2f, 0xd1, 0xe7, 0x01, 0x0c, 0xeb, 0xd5, 0x06, 0x08, 0xc9,
  0xda, 0xfc, 0xf9, 0xe8, 0x1e, 0x06, 0x17, 0x14, 0xea, 0xe5, 0x17, 0xfc,
  0xe2, 0x0b, 0xfb, 0x0c, 0xe1, 0xe6, 0x0d, 0xd2, 0xf2, 0x08, 0xf0, 0xf6,
  0x0d, 0x17, 0x08, 0x0e, 0xf4, 0xe7, 0x21, 0xf9, 0xe8, 0xee, 0xf3, 0xf7,
  0xfd, 0xe2, 0x0b, 0xea, 0xe6, 0x05, 0x02, 0xef, 0x08, 0x1d, 0xfe, 0x19,
  0xe2, 0xf9, 0x1b, 0xf5, 0xf4, 0x03, 0xf6, 0xfa, 0xf6, 0x04, 0xfc, 0xf0,
  0xe0, 0xfa, 0x0d, 0xee, 0x0a, 0x25, 0xfc, 0x1e, 0xf2, 0xef, 0xfc, 0x0d,
  0xf0, 0x06, 0xf6, 0x08, 0xf7, 0x13, 0xf6, 0xff, 0xf5, 0xee, 0x0a, 0xf3,
  0x0f, 0x00, 0xfc, 0x1f, 0x00, 0xd5, 0xef, 0x1a, 0xec, 0xf6, 0xea, 0x09,
  0x06, 0xfe, 0x16, 0xfc, 0x00, 0x00, 0x1b, 0x05, 0x25, 0x04, 0xfc, 0x0a,
  0xfd, 0xe8, 0xfa, 0x10, 0xfd, 0x17, 0xdf, 0xf2, 0x1b, 0xd1, 0x23, 0xff,
  0xf6, 0x15, 0x17, 0x11, 0x1d, 0xfe, 0xfd, 0x1c, 0x09, 0x0c, 0xff, 0x1e,
  0x1c, 0x0c, 0xcb, 0xfe, 0x19, 0xd7, 0x13, 0x01, 0x10, 0x0b, 0x11, 0x1d,
  0x1f, 0x15, 0x0f, 0x06, 0xf5, 0x2a, 0xf9, 0x0c, 0x0d, 0x09, 0xc9, 0x0a,
  0x2b, 0xe6, 0x19, 0x12, 0x0b, 0xff, 0x0f, 0x11, 0x0b, 0x2a, 0xfc, 0xf8,
  0xef, 0x14, 0xf5, 0xee, 0x1a, 0x2f, 0xe1, 0x16, 0x19, 0x0a, 0x29, 0x10,
  0x0a, 0x17, 0x0a, 0xf7, 0x11, 0x1b, 0xee, 0xe6, 0x07, 0x11, 0x03, 0xe3,
  0x05, 0x33, 0x08, 0x10, 0x0a, 0x19, 0x1b, 0x08, 0xfe, 0x25, 0x04, 0xea,
  0x01, 0x24, 0xe4, 0xe8, 0x00, 0xf4, 0x06, 0xe2, 0xfb, 0x43, 0x1e, 0x10,
  0x07, 0x1b, 0x03, 0x11, 0x02, 0x0e, 0x07, 0xf3, 0xfe, 0x1c, 0xee, 0x02,
  0x26, 0xf7, 0xff, 0xf3, 0xf2, 0x43, 0x1c, 0x1f, 0x01, 0x14, 0x04, 0xf3,
  0x13, 0x11, 0x03, 0xf9, 0xf8, 0x2b, 0xf4, 0x07, 0x3a, 0xf7, 0x0b, 0xff,
  0x00, 0x32, 0x35, 0x39, 0x00, 0x1b, 0x0f, 0xf7, 0x1e, 0xff, 0x0a, 0xfa,
  0xfe, 0x30, 0xf0, 0x1c, 0x31, 0x06, 0x03, 0x0a, 0x08, 0x0b, 0x30, 0x39,
  0xf5, 0xf4, 0x08, 0xea, 0x36, 0x04, 0xfe, 0x18, 0xef, 0x2c, 0xf0, 0x29,
  0x03, 0x19, 0x05, 0xf9, 0x03, 0x16, 0x1a, 0x30, 0xff, 0x12, 0xf8, 0xe7,
  0x50, 0xf7, 0x14, 0x11, 0xd5, 0x14, 0x08, 0x16, 0x0f, 0x15, 0x16, 0xfb,
  0xe7, 0xfa, 0xfc, 0x19, 0xe6, 0x06, 0xe8, 0xd8, 0x3c, 0xf7, 0x07, 0x0f,
  0xd5, 0x12, 0x05, 0x0b, 0x1a, 0xff, 0x17, 0xf3, 0xc6, 0xea, 0xf8, 0x01,
  0xe3, 0x07, 0xe0, 0xe1, 0x2b, 0xee, 0xf5, 0x03, 0xdb, 0xff, 0xf9, 0xfd,
  0x11, 0xf0, 0x22, 0xef, 0xd4, 0xe6, 0xee, 0x0a, 0xd2, 0x0a, 0xd3, 0xef,
  0x16, 0xf8, 0x07, 0x1c, 0xeb, 0xde, 0xfa, 0xfb, 0x07, 0xed, 0x12, 0xfd,
  0xec, 0xfe, 0x0a, 0x14, 0xe5, 0xfb, 0xee, 0xfb, 0x38, 0xec, 0x02, 0x11,
  0xd8, 0xdf, 0x0b, 0x08, 0xe6, 0x01, 0x0d, 0x18, 0x0c, 0xe9, 0x0e, 0x09,
  0xeb, 0xea, 0xf3, 0xed, 0x13, 0xe0, 0x07, 0x03, 0xd5, 0x00, 0x2f, 0xff,
  0xcc, 0x1c, 0x15, 0x19, 0x13, 0xf4, 0xff, 0x00, 0xff, 0xf2, 0xf0, 0xd7,
  0xfa, 0xdf, 0x06, 0xe2, 0xc8, 0x21, 0x31, 0xf2, 0xd0, 0xea, 0x20, 0xf3,
  0x18, 0xef, 0xf5, 0xf3, 0xf2, 0xee, 0xe2, 0xce, 0xde, 0xc6, 0x02, 0xe6,
  0xcf, 0x36, 0x33, 0xe8, 0xca, 0xd8, 0x18, 0xe9, 0x06, 0x10, 0xf1, 0xe2,
  0xe6, 0xf4, 0xcf, 0xc1, 0xde, 0xd3, 0xfa, 0xe7, 0xc7, 0x22, 0x40, 0xf0,
  0xd9, 0xe4, 0x19, 0xf2, 0x0d, 0x15, 0xeb, 0xdc, 0xd7, 0xfe, 0xe8, 0xd8,
  0xdf, 0x09, 0x1a, 0xdd, 0x12, 0x04, 0x06, 0xf3, 0xfc, 0xe0, 0x03, 0xf8,
  0x12, 0xea, 0x1c, 0x12, 0xeb, 0xf8, 0xd8, 0xe7, 0xea, 0x13, 0x21, 0xf2,
  0xff, 0x0b, 0xf7, 0xf4, 0x00, 0xe0, 0x0c, 0x08, 0x17, 0xdb, 0x26, 0x1b,
  0xe8, 0xe0, 0xe9, 0xf6, 0x10, 0xfc, 0xe9, 0x01, 0x33, 0xaa, 0x16, 0x38,
  0x38, 0xf2, 0x22, 0x2d, 0x20, 0xe2, 0xe2, 0xf5, 0xf8, 0xeb, 0x0c, 0x17,
  0xf6, 0x15, 0xfa, 0xd4, 0x30, 0x03, 0x01, 0x03, 0xf5, 0x01, 0x0c, 0x01,
  0x00, 0x0c, 0xfe, 0x19, 0x07, 0x2c, 0xec, 0xff, 0x23, 0xce, 0xec, 0xf7,
  0x3d, 0xe0, 0x0c, 0xfd, 0x1c, 0xff, 0xfc, 0x0e, 0xf9, 0xfa, 0xf5, 0x0a,
  0x18, 0x10, 0xf4, 0x11, 0x22, 0xec, 0xfd, 0x0e, 0x0f, 0xf5, 0x0a, 0xf6,
  0x28, 0x1f, 0xff, 0xf1, 0x18, 0x01, 0xfd, 0x0b, 0x17, 0x2d, 0x0e, 0x08,
  0x30, 0xe5, 0xf9, 0x09, 0x07, 0x06, 0xf4, 0xf5, 0x18, 0x08, 0x0d, 0x00,
  0x04, 0xf6, 0x10, 0x15, 0x14, 0x36, 0x0c, 0x0c, 0x1e, 0xe8, 0xf6, 0x04,
  0x18, 0xf6, 0xee, 0xfa, 0x19, 0x02, 0x06, 0x03, 0xfe, 0xfc, 0xf0, 0x25,
  0x10, 0x34, 0x0f, 0x04, 0x1b, 0xf4, 0xf3, 0x0d, 0x08, 0xee, 0xf7, 0x08,
  0x1b, 0xf7, 0xfe, 0x0d, 0xdf, 0xf1, 0xf6, 0x29, 0x06, 0x27, 0x24, 0xf7,
  0x25, 0xe6, 0xe5, 0x12, 0x1b, 0xd9, 0xee, 0x19, 0x1a, 0x15, 0xf2, 0x10,
  0xe7, 0xe0, 0xfe, 0x31, 0x05, 0x07, 0x22, 0x03, 0x27, 0xf1, 0xe2, 0x03,
  0x10, 0xc2, 0xdb, 0x1b, 0x1d, 0x08, 0xe2, 0x13, 0xdd, 0xdc, 0xeb, 0x22,
  0x09, 0xf5, 0x1e, 0x0b, 0x1f, 0xfe, 0xf5, 0x05, 0x1d, 0xca, 0xdd, 0x27,
  0x09, 0xeb, 0xfe, 0x0c, 0xe5, 0xdf, 0xe5, 0x02, 0x0e, 0xf6, 0x1d, 0x06,
  0x28, 0x23, 0xff, 0xea, 0x10, 0xee, 0xce, 0x24, 0xef, 0xf6, 0xf8, 0x09,
  0xe9, 0xe7, 0xe1, 0xf5, 0x0a, 0x0c, 0x39, 0x1c, 0x2d, 0x21, 0xf6, 0xe0,
  0x34, 0xd6, 0xe6, 0x1b, 0xfc, 0xea, 0x04, 0x01, 0xec, 0xea, 0xe1, 0xea,
  0x39, 0x08, 0x21, 0x14, 0x30, 0x25, 0xf8, 0xe4, 0x3a, 0xc5, 0xe6, 0x29,
  0xfd, 0xf3, 0x14, 0xf6, 0xfe, 0xef, 0xd7, 0xf8, 0x46, 0x1b, 0x0a, 0x10,
  0x2c, 0x1e, 0xf9, 0xf0, 0x41, 0xd8, 0xd7, 0x2b, 0x10, 0xed, 0x11, 0xf8,
  0x17, 0xe9, 0xf7, 0xfd, 0x2e, 0x15, 0xfe, 0x0d, 0x41, 0x19, 0x01, 0xe4,
  0x31, 0xdd, 0xe1, 0x26, 0xfb, 0xf8, 0x09, 0xfb, 0xfe, 0xe4, 0x01, 0xf5,
  0x13, 0x12, 0xd9, 0x12, 0x3c, 0x11, 0x0a, 0x05, 0x1f, 0xe2, 0xd1, 0x24,
  0xfa, 0xf3, 0x09, 0x07, 0xdd, 0xef, 0x08, 0x04, 0x05, 0x1b, 0xec, 0x11,
  0x1e, 0x14, 0x0d, 0x09, 0x14, 0xea, 0xd8, 0x26, 0xf6, 0xec, 0x0a, 0x09,
  0xe6, 0xfc, 0x11, 0xf8, 0xf6, 0x0d, 0x0d, 0xf2, 0x09, 0x2d, 0x0b, 0x07,
  0x15, 0xd1, 0xe7, 0x1e, 0x0b, 0xf7, 0x11, 0x14, 0xf9, 0x04, 0xf8, 0xf6,
  0xfc, 0xf7, 0x2f, 0xf4, 0x0a, 0x24, 0x31, 0x19, 0x15, 0xbb, 0xe7, 0x08,
  0x22, 0xf2, 0x0f, 0x26, 0x01, 0x01, 0x09, 0xf6, 0x15, 0x01, 0x3e, 0xf9,
  0x25, 0x18, 0x32, 0x15, 0x20, 0xc4, 0xf0, 0xf1, 0x18, 0x03, 0x08, 0x27,
  0x0d, 0xec, 0x03, 0xfd, 0x24, 0x14, 0x3b, 0x07, 0x19, 0x06, 0x0e, 0x16,
  0x02, 0xc9, 0xfd, 0xed, 0xf9, 0x00, 0xf8, 0x28, 0x13, 0xfc, 0x19, 0xfc,
  0x19, 0x0f, 0x24, 0x0d, 0x18, 0x00, 0x0d, 0x25, 0xfd, 0xd4, 0x00, 0xe7,
  0x03, 0xed, 0xf3, 0x21, 0x1a, 0x15, 0x0d, 0x14, 0x18, 0x20, 0x11, 0x06,
  0x06, 0x23, 0x09, 0x24, 0x04, 0xdb, 0xf3, 0xe1, 0xfd, 0xec, 0xf7, 0x1e,
  0xf8, 0x22, 0x07, 0x09, 0x0e, 0x0c, 0xe5, 0xf9, 0x07, 0x1e, 0x10, 0x16,
  0x26, 0xe7, 0xf8, 0xdb, 0xe9, 0x03, 0xf8, 0x2d, 0x19, 0x24, 0x0b, 0x06,
  0x0e, 0x16, 0xd5, 0x02, 0x1b, 0x20, 0x0f, 0x07, 0x22, 0xdd, 0xfa, 0xdb,
  0xf4, 0xf5, 0x04, 0x2c, 0x0d, 0x2f, 0x15, 0x0d, 0x17, 0x1b, 0xeb, 0xf4,
  0x0d, 0x07, 0x1d, 0x0c, 0x10, 0xda, 0xf0, 0xdc, 0xe8, 0xf9, 0x10, 0x23,
  0x16, 0x2e, 0x18, 0x1c, 0x18, 0x0f, 0xea, 0xe7, 0xef, 0x0a, 0x0e, 0xe9,
  0x09, 0xf3, 0xf2, 0xea, 0xfb, 0xe6, 0x15, 0xf8, 0x06, 0xe6, 0xfc, 0x15,
  0xf9, 0xf6, 0xdf, 0xeb, 0xf4, 0x07, 0x15, 0xe4, 0x09, 0xe9, 0xe8, 0xfe,
  0xfc, 0xea, 0x15, 0x08, 0x08, 0xf2, 0x0a, 0x08, 0xf2, 0xee, 0xfc, 0xf5,
  0xf7, 0x09, 0x21, 0xe6, 0x11, 0x0d, 0xf0, 0xe9, 0xf0, 0xe9, 0xef, 0xe3,
  0x06, 0xf8, 0x2c, 0x1d, 0xef, 0xfc, 0xcc, 0xec, 0xf3, 0x05, 0x20, 0xfa,
  0x09, 0xfc, 0xef, 0x08, 0xea, 0xdb, 0x0e, 0xfc, 0x2b, 0xe3, 0x0c, 0x0a,
  0xdd, 0xdb, 0xd6, 0xf0, 0xf0, 0x05, 0x1f, 0xfb, 0xe8, 0x05, 0x05, 0x15,
  0x04, 0xd1, 0xf8, 0x09, 0x16, 0xf6, 0xfc, 0x09, 0xe7, 0xdc, 0xf9, 0xf3,
  0xfb, 0xf8, 0x0f, 0xf8, 0x01, 0xf9, 0x07, 0xf5, 0xfb, 0xdd, 0xeb, 0x03,
  0x0a, 0xfb, 0xfd, 0x11, 0x02, 0xe7, 0xf3, 0xfe, 0xf5, 0xf4, 0x01, 0x07,
  0x14, 0xec, 0x06, 0xef, 0xdd, 0xd3, 0xf1, 0xff, 0x02, 0x00, 0xe7, 0xfa,
  0xf0, 0xdb, 0x08, 0xf9, 0x05, 0x12, 0x2f, 0xf9, 0xf5, 0x12, 0xf6, 0x0c,
  0xdc, 0xf9, 0xfd, 0xff, 0x1d, 0x0e, 0xec, 0x07, 0xf8, 0xd4, 0x13, 0xf9,
  0x14, 0x18, 0x28, 0xeb, 0xf5, 0x03, 0x00, 0x1f, 0xcc, 0xf6, 0x05, 0xf2,
  0x16, 0x13, 0xf8, 0x0d, 0xf3, 0xfb, 0x11, 0xe4, 0x00, 0x03, 0x20, 0xee,
  0xf0, 0x0a, 0xf4, 0x26, 0xdf, 0xde, 0x0f, 0xfc, 0x08, 0x23, 0x0a, 0x13,
  0xfe, 0xff, 0x11, 0xea, 0xed, 0x0b, 0x19, 0xf4, 0xe4, 0x1d, 0xeb, 0x20,
  0xf7, 0x07, 0x16, 0xfe, 0xef, 0x1d, 0x02, 0x15, 0x1e, 0xfa, 0x26, 0xfd,
  0xf7, 0x19, 0x1a, 0xe8, 0xe1, 0x16, 0xe4, 0x19, 0xee, 0x02, 0x07, 0xf1,
  0xfd, 0x31, 0x16, 0x17, 0x1c, 0x03, 0x23, 0xea, 0xe5, 0x19, 0x14, 0xf0,
  0xe2, 0x0e, 0xf2, 0x00, 0xeb, 0xf7, 0x05, 0xe8, 0xfd, 0x3a, 0x06, 0x13,
  0x17, 0x03, 0x0d, 0xe0, 0xb7, 0x0d, 0xff, 0xeb, 0xfa, 0x0b, 0xf1, 0xf5,
  0xf0, 0x10, 0xfe, 0xd3, 0xf4, 0x32, 0xef, 0x09, 0x14, 0x09, 0xf1, 0xf4,
  0xb4, 0x08, 0x06, 0xdf, 0xf7, 0xe5, 0xf6, 0xe4, 0x18, 0x12, 0xf7, 0xe7,
  0xdf, 0x1e, 0xd1, 0xf7, 0xfa, 0x07, 0x01, 0xff, 0xd8, 0x07, 0x06, 0xf2,
  0x09, 0xd9, 0xea, 0x06, 0x1b, 0x0a, 0xf7, 0x00, 0xd2, 0x0f, 0xcf, 0xea,
  0xf9, 0xef, 0x19, 0x03, 0xf1, 0xf8, 0xfd, 0x1e, 0x09, 0xe3, 0xfc, 0x0f,
  0x15, 0x13, 0xf2, 0x07, 0xf1, 0x06, 0xd0, 0xe9, 0x0c, 0x07, 0xfc, 0x1f,
  0x1b, 0x05, 0xfa, 0x2c, 0xfd, 0x02, 0x01, 0x02, 0x12, 0x19, 0xee, 0x05,
  0xe4, 0xf6, 0xcc, 0xef, 0x04, 0xfc, 0xf7, 0x22, 0x2c, 0x0b, 0xf6, 0x2a,
  0xfe, 0x0f, 0xf0, 0xf9, 0x05, 0x07, 0xf3, 0xef, 0xe6, 0xe7, 0xdf, 0xe1,
  0xe6, 0xfd, 0xe4, 0x20, 0x1b, 0x03, 0xfe, 0x21, 0x0e, 0x1c, 0xef, 0x03,
  0x02, 0xf3, 0xe6, 0xf2, 0xf1, 0xd2, 0x19, 0xe7, 0xf2, 0x00, 0xeb, 0x09,
  0x04, 0xfd, 0x02, 0x2a, 0x1d, 0x28, 0x06, 0xed, 0x11, 0xe6, 0xf6, 0xe7,
  0x08, 0xdb, 0x22, 0xda, 0xf5, 0x12, 0x0f, 0x09, 0xfe, 0x0f, 0xf1, 0x1d,
  0x02, 0x1f, 0x0d, 0xf8, 0x0b, 0xde, 0xfe, 0xf9, 0x11, 0xfa, 0x24, 0xd1,
  0xd8, 0x16, 0x08, 0x09, 0xfc, 0x0e, 0xff, 0x1f, 0xf5, 0x31, 0x11, 0xd5,
  0x0c, 0xf4, 0xf7, 0xf1, 0x0e, 0xee, 0x25, 0xef, 0xf1, 0x0c, 0xfc, 0x0b,
  0x05, 0x14, 0xea, 0x0e, 0xf6, 0x37, 0xf7, 0xe1, 0x01, 0xf3, 0xf9, 0xf2,
  0x1e, 0x00, 0x25, 0xea, 0x06, 0x0d, 0xfb, 0x15, 0xf0, 0xf8, 0xec, 0x05,
  0x05, 0x26, 0x13, 0xcf, 0xf0, 0xf4, 0x0b, 0x1e, 0x2c, 0x18, 0x26, 0xfb,
  0xfb, 0xff, 0x11, 0x1c, 0xcd, 0xfa, 0xc5, 0x09, 0xf3, 0x0e, 0x2d, 0xe2,
  0xe5, 0x08, 0x08, 0x3d, 0x14, 0x16, 0x1f, 0xff, 0x0e, 0xdd, 0x18, 0x2f,
  0xbb, 0x05, 0xc0, 0x09, 0x11, 0x0e, 0x32, 0xca, 0xd7, 0x09, 0xfd, 0x27,
  0x22, 0x2e, 0x16, 0xee, 0x06, 0xd7, 0x27, 0x27, 0xb7, 0x21, 0xc6, 0x04,
  0x1b, 0xfd, 0x54, 0xbd, 0xd6, 0x19, 0x07, 0x17, 0x1a, 0x52, 0x24, 0xeb,
  0xdd, 0xd1, 0x3c, 0x38, 0x0c, 0xf8, 0xf7, 0x02, 0xfc, 0x06, 0xfe, 0xf7,
  0x09, 0x05, 0xf4, 0x06, 0xf9, 0x0a, 0x3e, 0xfc, 0x17, 0x0b, 0x11, 0xf7,
  0x07, 0x00, 0xf1, 0x13, 0xe3, 0x11, 0x09, 0xea, 0xf2, 0x0b, 0x02, 0x02,
  0xfe, 0x0f, 0x0c, 0xfb, 0x04, 0x02, 0x0f, 0xdc, 0x00, 0x06, 0x0c, 0x03,
  0xde, 0x49, 0xe9, 0xe3, 0xd2, 0x06, 0xf3, 0xd9, 0xf7, 0x1e, 0x29, 0x00,
  0xfa, 0x02, 0xee, 0xd1, 0x17, 0xef, 0xee, 0x24, 0xff, 0xec, 0x14, 0x2e,
  0x19, 0x05, 0x0b, 0x13, 0xfd, 0xeb, 0x13, 0xec, 0x0d, 0xe3, 0x1e, 0x03,
  0x00, 0xf5, 0xfd, 0x14, 0xed, 0x11, 0xfe, 0xff, 0xed, 0x01, 0xfe, 0xf9,
  0xfe, 0xfa, 0x20, 0xfa, 0x08, 0xef, 0xf9, 0xfa, 0xec, 0x09, 0x02, 0x0d,
  0xe5, 0x14, 0x00, 0xe8, 0xf4, 0xff, 0x10, 0xfd, 0x0c, 0x0e, 0x10, 0xff,
  0xfd, 0xeb, 0x0f, 0xf2, 0xe3, 0xff, 0x05, 0x12, 0xf5, 0x12, 0x10, 0xf3,
  0xf1, 0x03, 0xfe, 0x06, 0x0b, 0x0b, 0x0e, 0x01, 0x02, 0xda, 0xfd, 0xf7,
  0xd9, 0xf6, 0xf7, 0x12, 0xe9, 0x11, 0x18, 0x1b, 0x02, 0x03, 0x04, 0x0e,
  0x1f, 0xf3, 0xf7, 0xef, 0x0e, 0xde, 0x20, 0xfc, 0xed, 0xfb, 0x03, 0x11,
  0xed, 0x01, 0x12, 0x14, 0x01, 0x0b, 0xe4, 0xf3, 0x1d, 0xff, 0xe7, 0xe8,
  0x09, 0xf5, 0x16, 0x12, 0xe6, 0xf1, 0x16, 0x09, 0xdb, 0x16, 0x05, 0x0a,
  0x04, 0x0a, 0xe5, 0xeb, 0x13, 0x0c, 0xfb, 0xf4, 0x15, 0xff, 0x0f, 0x0c,
  0xf3, 0xf5, 0x06, 0xf2, 0xe1, 0x1b, 0x0b, 0x1d, 0xed, 0x0d, 0xef, 0xf6,
  0xfa, 0x0f, 0xf2, 0xeb, 0x14, 0x01, 0x07, 0x16, 0xe5, 0xf3, 0x0e, 0xf9,
  0x07, 0x0d, 0xfa, 0x2b, 0xe5, 0x0e, 0xf6, 0xe9, 0xd9, 0xf9, 0xe8, 0x0c,
  0x10, 0x15, 0x03, 0x0c, 0xf0, 0x02, 0xfd, 0x05, 0x1f, 0x03, 0x08, 0x2c,
  0xe7, 0x03, 0xfc, 0xe6, 0xd3, 0xeb, 0xe0, 0x1f, 0x10, 0x10, 0xfe, 0x1e,
  0xf9, 0x0b, 0x00, 0x0e, 0x34, 0x03, 0x1b, 0x1a, 0xf8, 0x04, 0x12, 0xd3,
  0xe9, 0xdc, 0xf8, 0xff, 0x00, 0x18, 0x11, 0x22, 0x08, 0x0e, 0xf8, 0x01,
  0x45, 0xe9, 0x17, 0x0a, 0xf9, 0x0f, 0x19, 0xe4, 0xef, 0xcf, 0xf0, 0xfb,
  0xff, 0x1b, 0x0f, 0x09, 0x08, 0x33, 0x08, 0x08, 0x21, 0xd8, 0x23, 0xf2,
  0xf6, 0xf8, 0x1d, 0xf7, 0x10, 0xdf, 0xf3, 0xdf, 0xe5, 0x30, 0x0c, 0x10,
  0x13, 0x26, 0xfd, 0xed, 0x03, 0xd8, 0x0b, 0xe3, 0xee, 0xf6, 0x12, 0xe0,
  0x16, 0x07, 0xf5, 0xed, 0xdb, 0x38, 0x00, 0x2a, 0xe5, 0x21, 0xfd, 0xd4,
  0xe5, 0xfa, 0x0c, 0xcb, 0xe4, 0xe7, 0xf9, 0xd6, 0x11, 0x26, 0xfe, 0xfc,
  0xee, 0x37, 0x05, 0x2e, 0xde, 0x06, 0x01, 0xd3, 0x00, 0xf9, 0x10, 0xd0,
  0xe5, 0xef, 0x03, 0xec, 0x06, 0x3b, 0x08, 0x05, 0x06, 0x39, 0x04, 0x19,
  0xc4, 0x0c, 0x10, 0xd0, 0x11, 0xf9, 0x13, 0xdf, 0xf1, 0x00, 0xe9, 0xdd,
  0x0a, 0x33, 0xe8, 0x14, 0x07, 0x09, 0x11, 0x00, 0xd2, 0x09, 0x0b, 0xd0,
  0x0e, 0xfb, 0x1e, 0xff, 0xe2, 0x12, 0xe9, 0xf4, 0x0b, 0x30, 0xee, 0x07,
  0x11, 0xff, 0x12, 0x10, 0xd8, 0x05, 0x0c, 0xef, 0x08, 0x0d, 0x09, 0x0a,
  0xd8, 0x11, 0xf6, 0xf9, 0x0c, 0x28, 0xf1, 0x18, 0x0e, 0xdf, 0x03, 0x35,
  0xd7, 0xf9, 0xf6, 0xf1, 0x22, 0x25, 0x03, 0x06, 0xf7, 0x1c, 0x08, 0x24,
  0xf4, 0x23, 0xe3, 0x13, 0xff, 0xf3, 0x13, 0x1e, 0xd3, 0xfb, 0x01, 0xec,
  0x2f, 0x19, 0x05, 0x11, 0x02, 0x1f, 0x07, 0x1b, 0xe5, 0x09, 0xd7, 0x0d,
  0xfc, 0xee, 0x1a, 0x15, 0xd7, 0xe5, 0x12, 0x07, 0x36, 0x0f, 0x1b, 0x0d,
  0x23, 0x15, 0x06, 0xf1, 0xe7, 0xdc, 0xcc, 0x14, 0xeb, 0xfb, 0x1d, 0x09,
  0xfb, 0xe3, 0x09, 0xfb, 0x48, 0x0e, 0x15, 0x12, 0x34, 0x25, 0xfc, 0xd8,
  0xea, 0xb8, 0xd9, 0xfe, 0xd1, 0x04, 0x1a, 0x12, 0x11, 0xe3, 0x09, 0x02,
  0x29, 0x15, 0x06, 0x13, 0x39, 0x1a, 0xef, 0xd1, 0xe7, 0xbf, 0xe9, 0xf8,
  0xd1, 0x02, 0x02, 0x1b, 0x00, 0xe1, 0x0e, 0xfd, 0x24, 0x23, 0x04, 0x1f,
  0x3b, 0x03, 0xec, 0xc6, 0x03, 0xcc, 0x03, 0xe8, 0xda, 0xf3, 0xf5, 0x2f,
  0xf1, 0xf9, 0x11, 0xf9, 0x04, 0xdd, 0xfe, 0x02, 0xfe, 0xfe, 0xf3, 0x19,
  0x09, 0x08, 0xff, 0xfe, 0xf2, 0xf2, 0x05, 0xff, 0xe6, 0x0f, 0x08, 0xea,
  0x01, 0xfd, 0xfd, 0xf5, 0xde, 0x00, 0x05, 0xfe, 0xfd, 0x04, 0xfb, 0x11,
  0xf9, 0x0f, 0x00, 0x01, 0xc2, 0x26, 0x36, 0xcc, 0x05, 0x1e, 0xe2, 0xe1,
  0xb0, 0xf2, 0x20, 0xfb, 0x09, 0x0d, 0x04, 0x07, 0xc6, 0x34, 0x03, 0xfd,
  0xab, 0x2c, 0x35, 0xae, 0x11, 0x01, 0xdd, 0xe9, 0xc9, 0xf4, 0x33, 0xf7,
  0xfb, 0x22, 0x05, 0x16, 0xde, 0x28, 0x13, 0xf0, 0xd1, 0x56, 0x26, 0xce,
  0x1e, 0x06, 0xec, 0xd2, 0xf5, 0x18, 0x1c, 0xf5, 0x09, 0x28, 0xf3, 0x0e,
  0xe6, 0x26, 0x1c, 0x04, 0x08, 0x21, 0xda, 0xf3, 0xf5, 0x09, 0xf7, 0xd3,
  0x14, 0x14, 0xeb, 0x0e, 0x0a, 0x15, 0x0c, 0x0b, 0x0b, 0x23, 0x02, 0x1a,
  0x26, 0x2f, 0xcd, 0xf2, 0xe5, 0x15, 0xda, 0xd9, 0x28, 0x30, 0xf8, 0xe4,
  0xfc, 0x1d, 0x26, 0x06, 0xfa, 0x43, 0xe3, 0x17, 0x21, 0x33, 0xd2, 0xfc,
  0xdb, 0xf4, 0xce, 0xdc, 0x41, 0x3f, 0x1d, 0xe2, 0xe3, 0x1e, 0x16, 0xfd,
  0x0a, 0x32, 0xfa, 0x05, 0x15, 0x22, 0xe8, 0x12, 0xec, 0xe7, 0xcc, 0xe6,
  0x3a, 0x22, 0x24, 0xe8, 0xcb, 0x1f, 0x29, 0xfb, 0x21, 0x23, 0x10, 0x0e,
  0x17, 0x11, 0xd7, 0x09, 0x0e, 0xf1, 0xed, 0x0a, 0x37, 0x1c, 0x19, 0xef,
  0xc3, 0x08, 0x10, 0x05, 0x32, 0x12, 0x16, 0xf6, 0x27, 0xf7, 0xdb, 0xfb,
  0x19, 0x04, 0xf9, 0x13, 0x1b, 0x15, 0x1d, 0xdd, 0xcf, 0xf7, 0x17, 0x03,
  0x4a, 0x0a, 0x0c, 0xd8, 0x24, 0xeb, 0xf4, 0x09, 0x10, 0xe9, 0xf3, 0x27,
  0x19, 0xee, 0x0b, 0xe0, 0xd1, 0xea, 0x08, 0x06, 0x3b, 0x15, 0xfd, 0xb9,
  0x27, 0xcf, 0xf4, 0x0d, 0xff, 0xea, 0x09, 0x20, 0x28, 0xe4, 0xfa, 0xeb,
  0xdf, 0xe1, 0x07, 0xf6, 0x1d, 0x08, 0xe7, 0xc9, 0x32, 0xd5, 0x03, 0x0d,
  0xea, 0xf1, 0x0d, 0x23, 0x31, 0xe6, 0xec, 0x08, 0xd3, 0xe2, 0xf6, 0xf5,
  0x2c, 0x13, 0xd1, 0xce, 0x29, 0xe7, 0x03, 0x02, 0xe6, 0x06, 0x24, 0x11,
  0x2f, 0xee, 0x02, 0x08, 0xe6, 0x00, 0xfe, 0x02, 0x22, 0xf8, 0xc1, 0xdb,
  0x21, 0xe4, 0xf3, 0x19, 0xdb, 0x20, 0x31, 0x22, 0x22, 0xfd, 0xf0, 0x25,
  0xfc, 0xe4, 0xf7, 0x0e, 0x27, 0xe3, 0xbc, 0xf4, 0xf3, 0xe7, 0xe4, 0xfd,
  0xe7, 0x25, 0x38, 0x1d, 0x33, 0x05, 0x07, 0x3b, 0x05, 0xd9, 0xf0, 0xf7,
  0x19, 0xde, 0xe8, 0xec, 0xcb, 0x08, 0xf2, 0x05, 0xe9, 0x1d, 0x30, 0x2e,
  0x21, 0x03, 0x07, 0x4f, 0x03, 0xd9, 0xf0, 0xf4, 0x17, 0xfc, 0x01, 0xff,
  0xd0, 0x0a, 0xfd, 0x12, 0xea, 0x12, 0x1b, 0x23, 0x30, 0x00, 0xf6, 0x40,
  0x06, 0xc5, 0xed, 0xfa, 0xff, 0x01, 0x2f, 0xff, 0xcf, 0x09, 0xfc, 0x12,
  0xea, 0xf5, 0x14, 0x28, 0x27, 0x05, 0x06, 0x3d, 0x0f, 0xd5, 0xfc, 0xfd,
  0xff, 0x01, 0x16, 0x03, 0xcd, 0x0f, 0xf4, 0x09, 0xda, 0xe7, 0x23, 0x20,
  0xf9, 0xfa, 0x07, 0x15, 0x13, 0xd5, 0xef, 0xfb, 0xeb, 0xff, 0x0c, 0xf4,
  0xda, 0x2a, 0xe5, 0xfe, 0xe0, 0x03, 0x0a, 0x1b, 0xe1, 0xef, 0x02, 0xfd,
  0x17, 0x00, 0xfa, 0xff, 0xf7, 0x0d, 0x0a, 0xf1, 0xd6, 0x2a, 0xf4, 0xfa,
  0xe2, 0xf9, 0x02, 0xf4, 0xee, 0xf0, 0x0e, 0xd9, 0x28, 0x17, 0xf1, 0x0c,
  0xfa, 0x1a, 0x00, 0xdd, 0xf1, 0x39, 0x09, 0xfa, 0xdb, 0xed, 0xed, 0xfd,
  0x1e, 0x05, 0x11, 0xce, 0x06, 0x1b, 0xf0, 0x0a, 0xe9, 0x21, 0x0f, 0xde,
  0x09, 0x37, 0x09, 0xf8, 0xf6, 0xd3, 0xce, 0x04, 0x32, 0x0d, 0x0f, 0x02,
  0xfd, 0x14, 0xe6, 0x22, 0x0e, 0x28, 0x15, 0xe6, 0x07, 0x2a, 0x0d, 0x01,
  0x12, 0xf1, 0xd7, 0xf9, 0x33, 0x03, 0x05, 0x1e, 0xf1, 0x19, 0xf1, 0x2e,
  0xeb, 0x10, 0x06, 0xfc, 0x12, 0x2f, 0x15, 0x06, 0x22, 0xef, 0xd9, 0xef,
  0x27, 0xfa, 0xfe, 0x16, 0x0c, 0x15, 0xf1, 0x1d, 0xc7, 0x04, 0xf8, 0x0b,
  0x1c, 0x26, 0x22, 0x04, 0x17, 0xe5, 0xca, 0xef, 0x1f, 0xef, 0x0b, 0x1a,
  0x15, 0xfd, 0x06, 0x25, 0xe5, 0x15, 0xfb, 0x12, 0xf2, 0x14, 0x1a, 0xe7,
  0x08, 0x15, 0xf5, 0xf9, 0xf6, 0xf4, 0x17, 0xf9, 0x0a, 0x09, 0x0a, 0x03,
  0xfc, 0xfb, 0xf6, 0xeb, 0xf1, 0x11, 0x07, 0xe9, 0x06, 0x18, 0xf7, 0x0f,
  0xfc, 0xfd, 0x0b, 0xf9, 0x0a, 0xfb, 0x0c, 0x0e, 0xfd, 0x09, 0xff, 0xdd,
  0xdd, 0x0a, 0x19, 0xd8, 0x13, 0x05, 0x0f, 0xfb, 0x02, 0xf2, 0x01, 0x0c,
  0xf6, 0x04, 0x0b, 0x1c, 0x02, 0x08, 0x06, 0xf5, 0x14, 0xe7, 0xfb, 0xfe,
  0x0b, 0xeb, 0x03, 0xfb, 0x1d, 0xf9, 0x04, 0x20, 0xf6, 0x00, 0xec, 0x09,
  0x21, 0x02, 0x13, 0x11, 0x21, 0x24, 0xfd, 0x0d, 0x21, 0xf3, 0xf6, 0x23,
  0xef, 0x11, 0x2a, 0x02, 0x0d, 0xfc, 0x02, 0xe8, 0x36, 0xe4, 0x12, 0x08,
  0x22, 0x13, 0xf7, 0xfb, 0x1c, 0xf0, 0x09, 0xfe, 0xf0, 0x05, 0x13, 0x00,
  0x03, 0xfe, 0x09, 0xfc, 0x0f, 0x02, 0xf0, 0xfc, 0x23, 0x0f, 0x0d, 0xf9,
  0x06, 0x09, 0x06, 0x04, 0x1f, 0x02, 0xfb, 0x00, 0x0e, 0xf2, 0xf8, 0xe0,
  0x0d, 0x18, 0xde, 0x12, 0x13, 0xfc, 0x1a, 0x0b, 0xf7, 0xec, 0x02, 0x00,
  0x1e, 0x0e, 0xdb, 0x0f, 0x06, 0xe0, 0xf5, 0xeb, 0xf5, 0x05, 0xe9, 0x0e,
  0xff, 0x01, 0x14, 0x00, 0xe9, 0xdc, 0xfe, 0xe3, 0x0f, 0x0d, 0xec, 0x23,
  0x17, 0xc3, 0x08, 0xf9, 0xe2, 0xfa, 0xe8, 0x01, 0xf1, 0xf7, 0xef, 0xf8,
  0xd9, 0xce, 0xf1, 0xc5, 0x0e, 0xe8, 0xfa, 0x07, 0x2e, 0xc7, 0x11, 0x0d,
  0xc2, 0xfc, 0xcf, 0x15, 0xe2, 0x07, 0xe6, 0xfa, 0xea, 0xb9, 0x17, 0xc8,
  0x18, 0xe7, 0xf9, 0x23, 0x3e, 0xf3, 0x14, 0xfb, 0xae, 0x05, 0xb9, 0x1e,
  0xc3, 0x0b, 0xf8, 0xec, 0xe0, 0xa7, 0x32, 0xce, 0x13, 0xd4, 0xff, 0x20,
  0x31, 0x03, 0x14, 0xfb, 0xc5, 0xe3, 0xb9, 0x1b, 0xca, 0x17, 0x03, 0xf0,
  0xdc, 0xc3, 0x14, 0xbd, 0xe5, 0xe2, 0x0b, 0x23, 0x2a, 0xe7, 0x0e, 0xf0,
  0xbe, 0xea, 0xde, 0x07, 0xd1, 0x0d, 0x22, 0xeb, 0xcc, 0xdb, 0x05, 0xce,
  0xe3, 0xdf, 0xeb, 0x21, 0x21, 0xe0, 0xfd, 0xeb, 0xc9, 0xdd, 0xfb, 0x12,
  0xf5, 0x0d, 0x07, 0xfb, 0xd0, 0xf2, 0xeb, 0xeb, 0xe0, 0xd5, 0xe3, 0x08,
  0x06, 0xe9, 0x13, 0xf3, 0xdf, 0xea, 0xd7, 0x1a, 0xe0, 0x0e, 0x18, 0xf4,
  0xe3, 0xfc, 0xea, 0xdd, 0xe8, 0xdb, 0xf4, 0x04, 0x0b, 0x0d, 0x17, 0xfd,
  0xd9, 0xf0, 0xd3, 0x02, 0xb8, 0x06, 0x1c, 0xd9, 0xef, 0x06, 0xe3, 0xd4,
  0xe5, 0xcc, 0xfa, 0x13, 0x11, 0x19, 0x25, 0x07, 0xe5, 0xed, 0xf7, 0xf6,
  0xd0, 0x0e, 0x0a, 0xe4, 0x22, 0xee, 0xf8, 0xc7, 0xf6, 0xd7, 0xee, 0x0b,
  0x13, 0x37, 0x21, 0x0d, 0xf3, 0xd6, 0x04, 0xf8, 0xcb, 0x0b, 0x12, 0xec,
  0x36, 0x01, 0xf3, 0xc6, 0xf8, 0xf3, 0xfb, 0xfd, 0x2c, 0x31, 0x13, 0x11,
  0x01, 0xd2, 0xfb, 0xf4, 0xe1, 0xff, 0x19, 0xf4, 0x2d, 0x17, 0xfb, 0xc9,
  0x07, 0x09, 0xfe, 0xf2, 0x17, 0x38, 0x0e, 0x2f, 0xfe, 0xd0, 0xfb, 0xf4,
  0xe9, 0x01, 0x1a, 0xfe, 0x0b, 0x17, 0xf3, 0xe9, 0x0c, 0xfe, 0x0f, 0x05,
  0x10, 0x29, 0x17, 0x22, 0xef, 0xee, 0x08, 0xf0, 0xfc, 0xee, 0x13, 0x07,
  0x27, 0x10, 0x0e, 0xfc, 0x24, 0x0b, 0xf3, 0x10, 0xfa, 0x15, 0x0a, 0x19,
  0x04, 0xfe, 0x14, 0x00, 0xf6, 0xea, 0xf7, 0x22, 0x32, 0x27, 0x00, 0x19,
  0x09, 0x14, 0xfb, 0x02, 0xf2, 0x06, 0xf8, 0x03, 0x06, 0x08, 0x0f, 0x0a,
  0xe7, 0xf4, 0x04, 0x1a, 0x3a, 0x2c, 0xfe, 0x30, 0x0b, 0x12, 0xea, 0xfb,
  0xeb, 0xf1, 0xe3, 0xff, 0xfa, 0x04, 0xfe, 0x0f, 0xf0, 0xe6, 0x11, 0x25,
  0x38, 0x13, 0x08, 0x3b, 0x05, 0x15, 0xf8, 0xff, 0xd5, 0xeb, 0xe2, 0x05,
  0xeb, 0x01, 0xe8, 0x20, 0xf2, 0xef, 0x11, 0x28, 0x1f, 0x1a, 0x12, 0x2d,
  0x14, 0x09, 0xea, 0xdf, 0xec, 0xef, 0xe8, 0xf1, 0xe1, 0x16, 0x09, 0x21,
  0xef, 0xf1, 0xff, 0x28, 0x09, 0x0a, 0x18, 0x2e, 0x0f, 0xf3, 0xe8, 0xcd,
  0x06, 0xe6, 0xef, 0xfa, 0xeb, 0x1a, 0xfc, 0x29, 0xec, 0x01, 0x07, 0x0c,
  0x03, 0x25, 0x06, 0x1a, 0xfd, 0xf1, 0xfd, 0xda, 0xf5, 0xf4, 0xf6, 0xf4,
  0xf0, 0x10, 0x05, 0x34, 0x09, 0xe8, 0xe1, 0x0c, 0xf2, 0x05, 0x19, 0x1c,
  0x10, 0x11, 0xde, 0x07, 0xee, 0x1a, 0xdb, 0xf4, 0x14, 0x18, 0x13, 0x25,
  0x28, 0xe6, 0xed, 0x11, 0xdd, 0x20, 0x16, 0x17, 0x16, 0x19, 0xe4, 0xf4,
  0xe1, 0x15, 0xec, 0xe4, 0x15, 0x16, 0x11, 0x17, 0x5a, 0xc9, 0xc7, 0x49,
  0xed, 0xde, 0x19, 0x3c, 0x51, 0x24, 0xd2, 0x23, 0xf3, 0xe0, 0xed, 0xcb,
  0x30, 0xe8, 0x15, 0x3a, 0x7f, 0xcb, 0xd8, 0x61, 0xd1, 0x06, 0xf1, 0x11,
  0x28, 0x33, 0xbe, 0x15, 0xfc, 0xda, 0xea, 0xc9, 0x16, 0x04, 0xf9, 0x35,
  0x49, 0xd1, 0xe8, 0x0f, 0xc8, 0x18, 0xec, 0xe5, 0x1d, 0x31, 0xcb, 0x01,
  0xe1, 0xf2, 0x12, 0xfd, 0xee, 0x2b, 0xd3, 0x19, 0x31, 0xe0, 0xf9, 0x18,
  0xd9, 0xe5, 0xea, 0x0a, 0x31, 0x28, 0xd4, 0x25, 0xe4, 0x10, 0x06, 0x09,
  0xfa, 0x16, 0x19, 0x15, 0x32, 0x0a, 0x00, 0x10, 0xf7, 0xd9, 0xe2, 0x15,
  0x28, 0x3e, 0xf6, 0x0d, 0xea, 0x03, 0x0e, 0xfa, 0xfd, 0x1e, 0x1d, 0x15,
  0x31, 0x32, 0x06, 0x03, 0x12, 0xd4, 0xe8, 0x0e, 0x02, 0x1e, 0x08, 0xf2,
  0xe6, 0xf9, 0x01, 0x01, 0xf2, 0x1e, 0x19, 0xf4, 0x2f, 0x2f, 0x17, 0xf8,
  0x21, 0xf2, 0xe8, 0x1d, 0x02, 0x17, 0x1c, 0xeb, 0xef, 0xf3, 0x0b, 0x0e,
  0xe6, 0x22, 0xf4, 0xe0, 0x27, 0x29, 0x1b, 0xed, 0x32, 0x04, 0xe4, 0x0d,
  0x0b, 0xe9, 0x2b, 0xed, 0xe5, 0xee, 0x10, 0x24, 0xc2, 0x30, 0xe9, 0xec,
  0x0c, 0x24, 0x27, 0xe2, 0x2d, 0x0a, 0xec, 0x07, 0x0f, 0xca, 0x19, 0xf6,
  0xf1, 0xf8, 0x29, 0x13, 0xb4, 0x2c, 0xf0, 0xf5, 0x04, 0x29, 0x2a, 0x06,
  0x36, 0xf6, 0xf3, 0xf2, 0x1f, 0xca, 0x28, 0x0e, 0x05, 0xf0, 0x3e, 0x0c,
  0xbb, 0x17, 0xef, 0xf3, 0x09, 0x1f, 0x24, 0x15, 0x3c, 0xf4, 0x02, 0xdc,
  0x2a, 0xcd, 0x20, 0x1f, 0x33, 0xe0, 0x35, 0x04, 0xa5, 0x15, 0xf0, 0xf4,
  0x09, 0x13, 0x16, 0x32, 0x1d, 0xf6, 0xfd, 0xdc, 0x1a, 0xd3, 0x25, 0x21,
  0x41, 0xe4, 0x4c, 0x02, 0xcf, 0x19, 0x05, 0xfe, 0x19, 0x10, 0x26, 0x25,
  0xed, 0x13, 0x0c, 0xe9, 0xfa, 0xe9, 0x19, 0x25, 0x36, 0xf4, 0x3c, 0xf0,
  0xdb, 0x09, 0xef, 0x06, 0x1c, 0x08, 0x28, 0x0b, 0xe7, 0x26, 0x12, 0xdd,
  0xf5, 0xf9, 0x15, 0x27, 0x28, 0xfe, 0x21, 0xfc, 0x01, 0xfb, 0xf2, 0x05,
  0x2a, 0x05, 0x0b, 0x13, 0xda, 0x0d, 0x1d, 0xd2, 0xef, 0xee, 0x06, 0x23,
  0x1d, 0x0a, 0x1f, 0xe8, 0x0d, 0x00, 0xee, 0xe8, 0x2f, 0xfc, 0x16, 0x1b,
  0xf1, 0x0d, 0x18, 0xee, 0xf1, 0xdc, 0x09, 0x16, 0x06, 0x0c, 0x1f, 0x02,
  0x18, 0x08, 0xe5, 0xf8, 0x1d, 0x03, 0x12, 0x13, 0xf3, 0xf3, 0x28, 0xf3,
  0xec, 0xe8, 0x07, 0x09, 0x0f, 0x0e, 0x1e, 0xfd, 0x1b, 0xfd, 0xe3, 0x08,
  0x3e, 0xf0, 0x05, 0x2b, 0xe9, 0x01, 0x26, 0xff, 0xda, 0xe3, 0xf1, 0x09,
  0x14, 0xf5, 0x18, 0x11, 0x24, 0xe8, 0xee, 0x0c, 0x3f, 0x04, 0xfd, 0x09,
  0xe2, 0x05, 0x1d, 0x07, 0xc9, 0xed, 0xf0, 0x00, 0x0d, 0xf3, 0x0c, 0x02,
  0x24, 0xdb, 0xe9, 0x0a, 0x41, 0xee, 0xf1, 0xf7, 0xd3, 0x00, 0x0c, 0xfb,
  0xcb, 0xff, 0x15, 0x0b, 0x08, 0xf8, 0xf7, 0x00, 0x05, 0xe5, 0xf1, 0xfa,
  0x24, 0xec, 0xf2, 0xdf, 0xea, 0xfa, 0xfe, 0xde, 0xec, 0xee, 0x2b, 0x01,
  0x14, 0xf7, 0x00, 0xda, 0xfe, 0xfb, 0xe7, 0xe1, 0x02, 0xde, 0xf2, 0xe8,
  0xf5, 0xef, 0xf3, 0xe4, 0xe6, 0x06, 0x25, 0xfd, 0x03, 0xf6, 0xee, 0xe0,
  0xed, 0xf6, 0xfa, 0xd9, 0xf2, 0xda, 0x07, 0xe2, 0xf5, 0xef, 0xfc, 0x06,
  0xee, 0xfb, 0x16, 0xee, 0xf6, 0xf9, 0xda, 0xe6, 0xf8, 0xef, 0x0a, 0xd8,
  0xeb, 0xe7, 0xfc, 0xd7, 0xdc, 0xff, 0x0d, 0xf9, 0xf2, 0xf1, 0xfe, 0xf3,
  0x0b, 0xf6, 0xe5, 0xd4, 0x15, 0xec, 0xf6, 0xd4, 0xe8, 0xd1, 0xee, 0xdd,
  0xda, 0x1b, 0x08, 0x0f, 0xf7, 0x00, 0xf2, 0xd7, 0xf5, 0x08, 0xd5, 0xd6,
  0x02, 0xe0, 0xf3, 0xdd, 0xe3, 0xd3, 0xf2, 0xd7, 0xe7, 0x1b, 0x10, 0x05,
  0xf4, 0xf4, 0x03, 0xd5, 0xe9, 0x05, 0xe3, 0xd9, 0x07, 0xe9, 0x01, 0xce,
  0xeb, 0x09, 0x0e, 0xdf, 0x0d, 0xfe, 0xeb, 0xf3, 0xf8, 0xe7, 0x0a, 0x15,
  0x23, 0xe9, 0x1f, 0x0e, 0xe3, 0xf5, 0xf3, 0xdf, 0xef, 0x19, 0x09, 0xe1,
  0x0e, 0xf4, 0xf1, 0xf9, 0xfd, 0xf3, 0x12, 0x07, 0x17, 0xe6, 0x13, 0x1b,
  0xe5, 0xff, 0xe5, 0xe9, 0xf0, 0x0d, 0x1d, 0xd5, 0x06, 0xf0, 0xe7, 0xf0,
  0xf8, 0xdc, 0x09, 0x0a, 0x16, 0xfc, 0x19, 0x1a, 0xe6, 0xf1, 0xf4, 0xe7,
  0xd9, 0x21, 0x1e, 0xd3, 0x0e, 0x01, 0xeb, 0xd7, 0xec, 0xeb, 0x28, 0x0a,
  0x1e, 0x0f, 0x12, 0x1f, 0xe9, 0x00, 0xf1, 0xdd, 0xa5, 0x55, 0x26, 0xb5,
  0x33, 0x2d, 0xdc, 0xcb, 0xaf, 0xf1, 0x39, 0xdc, 0x04, 0x12, 0x25, 0x1f,
  0xdf, 0x19, 0xe6, 0xdc, 0xb5, 0x2e, 0x3a, 0xf1, 0x22, 0x04, 0xcb, 0x11,
  0xc5, 0xe3, 0x40, 0xe9, 0x1a, 0xfa, 0x36, 0x03, 0xd8, 0xe5, 0xd9, 0xd9,
  0xf5, 0x04, 0x1e, 0xe8, 0x05, 0x09, 0x01, 0xf1, 0xf8, 0x0e, 0x26, 0x0c,
  0x0c, 0x07, 0x13, 0xfa, 0xf8, 0x08, 0xe5, 0x05, 0xdd, 0xf5, 0x14, 0xfd,
  0xfd, 0x10, 0x1a, 0xcf, 0xf8, 0xfe, 0x03, 0x03, 0x1a, 0x0a, 0x1a, 0x0e,
  0x0a, 0x09, 0xda, 0x06, 0xc8, 0xe4, 0x26, 0xf3, 0xf1, 0x25, 0x11, 0xf5,
  0x00, 0x2b, 0xeb, 0xf8, 0x05, 0x25, 0x19, 0x0c, 0xfb, 0xdd, 0xda, 0x00,
  0xe2, 0xe7, 0x0f, 0xf2, 0xee, 0x2f, 0x24, 0x17, 0x0e, 0x42, 0xe6, 0x23,
  0x15, 0xf7, 0xf5, 0x16, 0x02, 0xd9, 0xfd, 0x02, 0xdb, 0xf8, 0x00, 0xf6,
  0xf2, 0x26, 0x1f, 0x17, 0x18, 0x3c, 0xed, 0x1b, 0x0e, 0xde, 0xda, 0xfd,
  0x03, 0xe4, 0x14, 0x0a, 0xe0, 0xeb, 0xf6, 0xfb, 0xed, 0x26, 0x27, 0x19,
  0x14, 0x26, 0xec, 0x0b, 0xe9, 0xe2, 0xd0, 0x02, 0xf9, 0xe5, 0xf7, 0x20,
  0xe3, 0xf3, 0xe8, 0xf2, 0xdf, 0x11, 0x0d, 0x20, 0x0e, 0x1c, 0xf2, 0x0b,
  0xde, 0xf0, 0xdb, 0xfc, 0xf3, 0xf6, 0xca, 0x2a, 0xdb, 0x00, 0xe8, 0xec,
  0xd8, 0xff, 0x10, 0x1f, 0xeb, 0x16, 0xef, 0xf3, 0xda, 0x09, 0xf2, 0x14,
  0xdf, 0xe6, 0xc2, 0x33, 0xd5, 0x12, 0xe8, 0x0a, 0xe6, 0xf1, 0x0c, 0x0b,
  0xf2, 0x1b, 0xf7, 0xea, 0xf2, 0x1c, 0xea, 0x13, 0xf5, 0xf1, 0xe2, 0x2a,
  0xf2, 0x05, 0xe0, 0x2a, 0x00, 0xe8, 0x17, 0xfe, 0x0d, 0x08, 0xe0, 0xe0,
  0xee, 0x15, 0xf8, 0x11, 0x04, 0x14, 0x0a, 0x3f, 0x1f, 0x00, 0xe4, 0x3e,
  0x1b, 0xd7, 0x2f, 0x04, 0x0b, 0x03, 0xe3, 0xe9, 0xe9, 0x0e, 0x07, 0x28,
  0x08, 0x12, 0x1b, 0x42, 0x30, 0x0c, 0xe5, 0x3a, 0x1e, 0xe1, 0x25, 0x10,
  0x1a, 0x01, 0xe6, 0xf1, 0xff, 0xf5, 0x20, 0xfd, 0x16, 0x0f, 0x1a, 0x52,
  0x18, 0x03, 0xef, 0x3b, 0x1d, 0xdf, 0x20, 0x1b, 0x0c, 0x03, 0x00, 0x1a,
  0xe8, 0xfd, 0x1d, 0x07, 0x07, 0xf7, 0x29, 0x3f, 0x1f, 0x01, 0xe7, 0x18,
  0x26, 0xd8, 0x08, 0x19, 0xf7, 0x01, 0x05, 0x1a, 0xdb, 0xdf, 0x02, 0x07,
  0xef, 0x0b, 0x2d, 0x45, 0x22, 0x0b, 0x02, 0x13, 0x31, 0xd5, 0xf3, 0x1c,
  0xf4, 0xfb, 0x02, 0x17, 0xe1, 0xec, 0x07, 0x0b, 0xdf, 0x07, 0x22, 0x34,
  0x1c, 0x0f, 0x0a, 0x0c, 0x25, 0xcf, 0xfe, 0x0a, 0x08, 0xde, 0x09, 0xfc,
  0xf1, 0xe7, 0x04, 0x06, 0xeb, 0x0a, 0x07, 0x05, 0x25, 0x13, 0x0e, 0x14,
  0x0b, 0xcf, 0xf8, 0xfe, 0x08, 0xdd, 0x0c, 0x05, 0x07, 0xfd, 0x07, 0x0c,
  0x06, 0x01, 0xf4, 0xf3, 0x36, 0x2f, 0x09, 0x0f, 0x04, 0xd3, 0xec, 0x08,
  0xf6, 0xd4, 0x04, 0xfe, 0x12, 0xfa, 0x0c, 0xfc, 0x16, 0x10, 0x00, 0xf0,
  0x2e, 0x3f, 0x00, 0xfd, 0xdd, 0xe5, 0xcf, 0x1a, 0xf4, 0xe7, 0x07, 0xfc,
  0x02, 0xff, 0x20, 0x11, 0x17, 0x13, 0xfc, 0xf0, 0x2c, 0x2f, 0x15, 0xfa,
  0xd4, 0xf5, 0xd2, 0x0d, 0x06, 0xf1, 0xf3, 0x1e, 0xf8, 0xf5, 0x18, 0x16,
  0x27, 0x18, 0xf6, 0xee, 0x47, 0x30, 0x1d, 0xfe, 0xe0, 0xe2, 0xdb, 0x19,
  0x22, 0xf9, 0x06, 0x39, 0x12, 0xf3, 0x14, 0x14, 0x44, 0x1b, 0xec, 0xe2,
  0x75, 0x26, 0x30, 0x07, 0xda, 0xe9, 0xd7, 0x00, 0x09, 0xfa, 0x05, 0x39,
  0x0a, 0xd7, 0x0c, 0x13, 0x55, 0x2a, 0xf2, 0xe1, 0x17, 0xe9, 0xea, 0x1e,
  0xfb, 0x13, 0xfa, 0x05, 0x0b, 0x13, 0xe8, 0xef, 0xf4, 0x13, 0xe3, 0xed,
  0x10, 0xff, 0x1e, 0x19, 0xfe, 0xea, 0xf7, 0x13, 0xf8, 0x07, 0xfb, 0x06,
  0x11, 0x14, 0xe7, 0xfa, 0xe7, 0x17, 0xdd, 0xf9, 0x16, 0x08, 0x19, 0x17,
  0xf8, 0x01, 0x04, 0x00, 0xfb, 0x3b, 0xff, 0xf9, 0xf4, 0x05, 0xef, 0xda,
  0xe9, 0x35, 0xfe, 0xfe, 0x0a, 0x1a, 0xff, 0x04, 0xd4, 0x07, 0x10, 0xf8,
  0xfa, 0x20, 0x0b, 0xda, 0x03, 0x00, 0xe5, 0xcd, 0xda, 0x38, 0xff, 0x15,
  0xf3, 0x1f, 0xfd, 0xea, 0xca, 0x0f, 0xe9, 0xfe, 0xf3, 0x0a, 0x05, 0x03,
  0xfd, 0xf5, 0xe4, 0xed, 0x01, 0xfb, 0xf3, 0xf9, 0xf8, 0x06, 0x01, 0x05,
  0xe7, 0xf7, 0xe8, 0x02, 0xfb, 0x0c, 0xfb, 0x14, 0x06, 0x00, 0x08, 0xef,
  0x04, 0xf9, 0xe9, 0xed, 0x0e, 0x05, 0x09, 0xf2, 0xec, 0xf5, 0xe2, 0x01,
  0x00, 0x0e, 0xf6, 0x0b, 0xed, 0xee, 0x08, 0xf6, 0xed, 0xe9, 0xfa, 0xf4,
  0x01, 0x1e, 0x07, 0xfe, 0x06, 0x01, 0xdf, 0x07, 0x1b, 0x01, 0xfa, 0xf5,
  0xfe, 0xe0, 0x00, 0xf3, 0xe6, 0xfd, 0x04, 0xf2, 0x10, 0x18, 0xf8, 0xf8,
  0xfa, 0x0a, 0xf4, 0x04, 0x15, 0x23, 0xff, 0xc9, 0x0d, 0xfb, 0x05, 0x07,
  0x0c, 0xf3, 0xfd, 0xe9, 0x0f, 0x15, 0xd3, 0xf8, 0xec, 0xf5, 0xeb, 0xfb,
  0x06, 0x21, 0x02, 0xbd, 0xf3, 0x21, 0x08, 0x02, 0xfb, 0xfb, 0x09, 0xed,
  0x00, 0x0b, 0xca, 0xfd, 0xfd, 0x04, 0xef, 0x08, 0xfc, 0x21, 0xf2, 0xcf,
  0xf9, 0x17, 0x0c, 0xe6, 0xfa, 0x03, 0x08, 0xf7, 0x0d, 0x04, 0xec, 0xf7,
  0xf7, 0xf1, 0xf0, 0xf4, 0x07, 0x1c, 0xf2, 0xca, 0x07, 0x2d, 0xf9, 0xea,
  0x1b, 0x05, 0x10, 0xf0, 0x01, 0xf6, 0x01, 0xdb, 0x09, 0xfb, 0xe3, 0xf0,
  0xef, 0xfb, 0xe0, 0xea, 0x0a, 0x1f, 0xf9, 0xf2, 0x11, 0xfe, 0x0c, 0xff,
  0x00, 0xe3, 0x06, 0xe1, 0x14, 0xee, 0xdf, 0xdb, 0xf3, 0xff, 0xf1, 0x09,
  0x19, 0x16, 0xf9, 0x01, 0x19, 0xfa, 0xf7, 0x07, 0xfc, 0xfc, 0x16, 0xe1,
  0x13, 0xdf, 0xf4, 0xd8, 0x00, 0x17, 0xf2, 0x18, 0xfe, 0x21, 0x01, 0xfa,
  0xfd, 0xf3, 0xeb, 0xfd, 0xec, 0xf7, 0x32, 0xf8, 0x03, 0xd9, 0xe7, 0xf6,
  0xfa, 0x2a, 0xe8, 0x08, 0xf7, 0x1b, 0x12, 0xf1, 0x00, 0xe0, 0xf9, 0x03,
  0xe8, 0xf1, 0x2a, 0xf0, 0xf6, 0xd3, 0xff, 0xf4, 0x08, 0x08, 0xf0, 0x00,
  0xf3, 0x24, 0x14, 0xe0, 0xef, 0xd6, 0xe1, 0xe9, 0xe3, 0xe3, 0x19, 0xeb,
  0x00, 0xe1, 0xff, 0xee, 0x09, 0xe3, 0xe7, 0xdd, 0xe3, 0x25, 0x13, 0xdb,
  0x04, 0xd0, 0xdd, 0xe3, 0xe5, 0xf7, 0xe7, 0xd9, 0x18, 0xe4, 0xf3, 0xda,
  0xfa, 0xe6, 0xec, 0xdb, 0xf3, 0x05, 0x0c, 0xe1, 0x16, 0xdd, 0xe9, 0xf3,
  0xee, 0x14, 0xc4, 0xf1, 0xfd, 0xea, 0xe4, 0xc6, 0xfb, 0xf7, 0xec, 0xe2,
  0x03, 0x04, 0x02, 0xd2, 0x29, 0x0e, 0xf5, 0xf3, 0x04, 0x15, 0xce, 0x0f,
  0x0b, 0xf8, 0xee, 0xd1, 0x05, 0x12, 0xf5, 0xfa, 0x09, 0xf7, 0xfc, 0xe3,
  0x12, 0x25, 0x0b, 0x16, 0xfb, 0x0f, 0xc5, 0x0f, 0x10, 0x04, 0x0e, 0xd7,
  0xf0, 0x04, 0xf6, 0xfc, 0x12, 0x02, 0xf8, 0xf5, 0x04, 0x11, 0x32, 0x09,
  0x0a, 0xf7, 0xef, 0x0d, 0x2b, 0xff, 0x0f, 0xdf, 0xec, 0x0b, 0xf9, 0x0e,
  0x0f, 0xee, 0xf2, 0x05, 0xde, 0xf2, 0x34, 0x0f, 0x09, 0xe3, 0xea, 0x19,
  0x1a, 0xef, 0xfe, 0xee, 0xda, 0x14, 0x0f, 0xfd, 0x0b, 0xe3, 0xe6, 0x0b,
  0xdb, 0xff, 0x1f, 0xf7, 0x13, 0xe8, 0x03, 0x07, 0x17, 0xde, 0xe9, 0xf1,
  0xc3, 0x1f, 0x0c, 0x03, 0xfb, 0xea, 0xff, 0xef, 0xbf, 0xe8, 0x22, 0xfb,
  0x15, 0xf2, 0xfb, 0xff, 0x01, 0xf0, 0xe1, 0xdb, 0xca, 0x1f, 0x0e, 0xfa,
  0xdf, 0xef, 0x0c, 0x0c, 0xb7, 0xe7, 0x02, 0xec, 0xfd, 0xe7, 0x0b, 0xe6,
  0x04, 0xf3, 0xea, 0xd0, 0xd0, 0x38, 0xfd, 0x17, 0xdc, 0xfc, 0x0c, 0x07,
  0xb6, 0xeb, 0xee, 0xe2, 0x03, 0xe0, 0x13, 0xdd, 0xf1, 0xe8, 0xd7, 0xcd,
  0xee, 0x2f, 0x0d, 0x24, 0xe3, 0xfa, 0x05, 0xf7, 0xbd, 0xdf, 0xe8, 0xe6,
  0x00, 0xec, 0xfd, 0xdc, 0x12, 0xff, 0xef, 0x0a, 0xe9, 0xfb, 0x14, 0x0b,
  0x0c, 0x1e, 0x04, 0x02, 0xed, 0x03, 0xef, 0xf2, 0x08, 0x04, 0x04, 0x0e,
  0x04, 0xf9, 0xfb, 0x10, 0xf5, 0x10, 0x0a, 0xf8, 0x10, 0x06, 0xf3, 0xfe,
  0xe9, 0x0b, 0xf4, 0xf4, 0xfc, 0x0f, 0xff, 0x1b, 0xfc, 0xf9, 0xf8, 0x04,
  0xe6, 0x25, 0xf5, 0xf5, 0x0b, 0x14, 0x07, 0xfa, 0xec, 0x08, 0x02, 0xfe,
  0x04, 0x1d, 0xfd, 0xfb, 0xe5, 0x16, 0xfe, 0xec, 0xf6, 0x62, 0x00, 0xd9,
  0xf7, 0x0c, 0x01, 0xd6, 0xf4, 0x2c, 0x06, 0x0e, 0xf7, 0x1f, 0xfa, 0xe4,
  0xe3, 0xf1, 0x1d, 0xfe, 0x1f, 0xfe, 0x07, 0x06, 0xfd, 0xfe, 0x3c, 0x06,
  0xec, 0x08, 0xf5, 0xf1, 0xfd, 0x14, 0x00, 0x07, 0xd8, 0xf5, 0x45, 0x01,
  0x07, 0xfc, 0x06, 0x0f, 0xe2, 0xe2, 0x33, 0x07, 0xf7, 0x00, 0xf5, 0xe1,
  0xe7, 0x14, 0xe9, 0x10, 0xcc, 0xf1, 0x31, 0x0b, 0x0e, 0x04, 0x26, 0x15,
  0xee, 0xce, 0xee, 0x0b, 0x02, 0x04, 0xfc, 0xfa, 0xf9, 0xe5, 0x0e, 0x01,
  0xd8, 0xea, 0xf9, 0x0f, 0x0a, 0xfa, 0x10, 0x04, 0xdf, 0xc8, 0xeb, 0x0e,
  0xf0, 0xfa, 0xe7, 0x01, 0xf5, 0xcc, 0x1e, 0x00, 0xfc, 0xe8, 0xd7, 0x07,
  0x0c, 0xfd, 0x0f, 0x16, 0xd5, 0xc9, 0xfb, 0xef, 0x0c, 0x1d, 0xeb, 0xeb,
  0x07, 0xe3, 0xfb, 0x14, 0xff, 0xfb, 0xe5, 0x27, 0x08, 0xee, 0x1a, 0xf7,
  0xcc, 0xd9, 0xff, 0xea, 0x0f, 0x22, 0xf9, 0xde, 0xf7, 0xed, 0xf2, 0x0f,
  0x0e, 0xf1, 0xf1, 0x17, 0xf2, 0xf4, 0x05, 0xf7, 0xd5, 0xcd, 0x0a, 0xfb,
  0x0c, 0x17, 0x11, 0xe3, 0xec, 0x0f, 0xdf, 0x17, 0x06, 0x04, 0xfe, 0x0d,
  0xe4, 0x19, 0x07, 0xe5, 0xe0, 0xf1, 0x00, 0x0a, 0xf4, 0x2e, 0x20, 0xf0,
  0xf3, 0x0b, 0xf9, 0x0c, 0x03, 0x08, 0xfb, 0x18, 0xea, 0x18, 0x0f, 0xe8,
  0xf6, 0x06, 0x09, 0x0c, 0xf5, 0x29, 0x21, 0xf5, 0xfc, 0xeb, 0x2c, 0x03,
  0x00, 0xf2, 0x11, 0x28, 0xff, 0x12, 0x11, 0xfc, 0x10, 0x0d, 0x00, 0x11,
  0x0c, 0x06, 0x1b, 0x03, 0x0f, 0xf1, 0x46, 0xdc, 0x07, 0xeb, 0x10, 0x15,
  0xeb, 0x13, 0x05, 0xff, 0x01, 0x13, 0xf4, 0x0a, 0xfa, 0x06, 0x1f, 0xff,
  0x0b, 0xea, 0x40, 0xd1, 0x00, 0xf0, 0xf4, 0xfa, 0x0e, 0x0d, 0xf5, 0xf5,
  0xed, 0x08, 0x05, 0xfd, 0xf2, 0xf8, 0x14, 0x01, 0x11, 0xf9, 0x1a, 0xcf,
  0xe9, 0xee, 0x09, 0xe0, 0x00, 0x13, 0xe9, 0x1a, 0xed, 0xfc, 0x04, 0xe3,
  0xf5, 0x11, 0xfa, 0x01, 0x18, 0xf0, 0x02, 0xa6, 0xe3, 0xf7, 0x15, 0xeb,
  0x00, 0x0d, 0xe8, 0x3a, 0xfa, 0xfe, 0x0b, 0xdd, 0xe3, 0xfe, 0xfb, 0x02,
  0xf6, 0xfe, 0x1f, 0xad, 0xd6, 0xe3, 0x07, 0xe2, 0xfc, 0x0d, 0xe1, 0x2c,
  0x01, 0x03, 0x05, 0xf6, 0xeb, 0x04, 0xf9, 0xff, 0x00, 0xfd, 0x10, 0xb3,
  0xd0, 0xef, 0x00, 0xee, 0xe6, 0x12, 0xda, 0x27, 0x05, 0x15, 0x1b, 0x06,
  0xdc, 0xf2, 0xed, 0xf3, 0xfa, 0xfc, 0x0c, 0xbc, 0xd7, 0x01, 0xfc, 0xf4,
  0xf8, 0x07, 0xdf, 0x0c, 0xf5, 0x18, 0x0c, 0x02, 0xe1, 0x0a, 0xea, 0xea,
  0x11, 0x02, 0xfb, 0xbb, 0xc8, 0x01, 0xf9, 0xfa, 0x04, 0x11, 0xee, 0x10,
  0x0d, 0x32, 0x0b, 0xff, 0xf8, 0xfc, 0xe4, 0xf4, 0x11, 0x18, 0x0a, 0xe4,
  0xcd, 0xfb, 0x0c, 0xf9, 0x09, 0xf4, 0xe4, 0x28, 0xfe, 0x3a, 0x08, 0xee,
  0xea, 0xef, 0xe1, 0xf5, 0x0e, 0x16, 0x15, 0xe8, 0xcd, 0x0b, 0x0d, 0xec,
  0x12, 0xf3, 0xff, 0x21, 0x11, 0x22, 0x01, 0xe2, 0x16, 0xf9, 0xf1, 0x12,
  0xf3, 0x0d, 0x08, 0xf9, 0xda, 0x1a, 0x1f, 0xfd, 0x15, 0xea, 0xe5, 0x0f,
  0x08, 0x02, 0xfc, 0xd4, 0x34, 0x06, 0xfe, 0x16, 0xe7, 0x24, 0xf7, 0x07,
  0xf5, 0x11, 0x1a, 0x17, 0x00, 0xdd, 0xf3, 0xf7, 0x28, 0x10, 0xf5, 0xc9,
  0x33, 0x1f, 0x0e, 0x27, 0x14, 0x25, 0xfa, 0x26, 0x12, 0x1c, 0x25, 0x3d,
  0x02, 0xd6, 0xe4, 0x09, 0x41, 0x18, 0x04, 0xf5, 0x18, 0x07, 0x09, 0x37,
  0x1a, 0x2e, 0x04, 0x2f, 0x38, 0x17, 0x15, 0x4a, 0xf6, 0xe3, 0xf1, 0x0f,
  0x33, 0x08, 0x12, 0x14, 0x12, 0x0f, 0x13, 0x29, 0x24, 0x21, 0xfe, 0x2c,
  0x0a, 0xff, 0xff, 0xff, 0x04, 0x00, 0x00, 0x00, 0x50, 0x00, 0x00, 0x00,
  0x10, 0xe8, 0xf7, 0xff, 0xff, 0xff, 0xff, 0xff, 0xec, 0xc5, 0x09, 0x00,
  0x00, 0x00, 0x00, 0x00, 0xf0, 0xde, 0x07, 0x00, 0x00, 0x00, 0x00, 0x00,
  0x08, 0xee, 0xfb, 0xff, 0xff, 0xff, 0xff, 0xff, 0xfc, 0x08, 0x02, 0x00,
  0x00, 0x00, 0x00, 0x00, 0xf4, 0x15, 0x06, 0x00, 0x00, 0x00, 0x00, 0x00,
  0x12, 0xf6, 0xf6, 0xff, 0xff, 0xff, 0xff, 0xff, 0xef, 0x70, 0x08, 0x00,
  0x00, 0x00, 0x00, 0x00, 0x0f, 0x99, 0xf8, 0xff, 0xff, 0xff, 0xff, 0xff,
  0x0b, 0x9e, 0xfa, 0xff, 0xff, 0xff, 0xff, 0xff, 0x66, 0xff, 0xff, 0xff,
  0x04, 0x00, 0x00, 0x00, 0x08, 0x00, 0x00, 0x00, 0xff, 0xff, 0xff, 0xff,
  0x30, 0x02, 0x00, 0x00, 0x08, 0xf4, 0xff, 0xff, 0x0c, 0xf4, 0xff, 0xff,
  0x0f, 0x00, 0x00, 0x00, 0x4d, 0x4c, 0x49, 0x52, 0x20, 0x43, 0x6f, 0x6e,
  0x76, 0x65, 0x72, 0x74, 0x65, 0x64, 0x2e, 0x00, 0x01, 0x00, 0x00, 0x00,
  0x14, 0x00, 0x00, 0x00, 0x00, 0x00, 0x0e, 0x00, 0x18, 0x00, 0x14, 0x00,
  0x10, 0x00, 0x0c, 0x00, 0x08, 0x00, 0x04, 0x00, 0x0e, 0x00, 0x00, 0x00,
  0x14, 0x00, 0x00, 0x00, 0x1c, 0x00, 0x00, 0x00, 0xa0, 0x01, 0x00, 0x00,
  0xa4, 0x01, 0x00, 0x00, 0xa8, 0x01, 0x00, 0x00, 0x04, 0x00, 0x00, 0x00,
  0x6d, 0x61, 0x69, 0x6e, 0x00, 0x00, 0x00, 0x00, 0x04, 0x00, 0x00, 0x00,
  0xd4, 0x00, 0x00, 0x00, 0x94, 0x00, 0x00, 0x00, 0x50, 0x00, 0x00, 0x00,
  0x04, 0x00, 0x00, 0x00, 0xc6, 0xff, 0xff, 0xff, 0x1c, 0x00, 0x00, 0x00,
  0x00, 0x00, 0x00, 0x09, 0x1c, 0x00, 0x00, 0x00, 0x20, 0x00, 0x00, 0x00,
  0x03, 0x00, 0x00, 0x00, 0x00, 0x00, 0x06, 0x00, 0x08, 0x00, 0x04, 0x00,
  0x06, 0x00, 0x00, 0x00, 0x00, 0x00, 0x80, 0x3f, 0x01, 0x00, 0x00, 0x00,
  0x1a, 0x00, 0x00, 0x00, 0x01, 0x00, 0x00, 0x00, 0x19, 0x00, 0x00, 0x00,
  0x00, 0x00, 0x0e, 0x00, 0x18, 0x00, 0x14, 0x00, 0x10, 0x00, 0x0c, 0x00,
  0x0b, 0x00, 0x04, 0x00, 0x0e, 0x00, 0x00, 0x00, 0x14, 0x00, 0x00, 0x00,
  0x00, 0x00, 0x00, 0x08, 0x10, 0x00, 0x00, 0x00, 0x14, 0x00, 0x00, 0x00,
  0x02, 0x00, 0x00, 0x00, 0xd4, 0xf4, 0xff, 0xff, 0x01, 0x00, 0x00, 0x00,
  0x19, 0x00, 0x00, 0x00, 0x03, 0x00, 0x00, 0x00, 0x18, 0x00, 0x00, 0x00,
  0x03, 0x00, 0x00, 0x00, 0x02, 0x00, 0x00, 0x00, 0x00, 0x00, 0x0a, 0x00,
  0x10, 0x00, 0x0c, 0x00, 0x08, 0x00, 0x04, 0x00, 0x0a, 0x00, 0x00, 0x00,
  0x0c, 0x00, 0x00, 0x00, 0x10, 0x00, 0x00, 0x00, 0x01, 0x00, 0x00, 0x00,
  0x01, 0x00, 0x00, 0x00, 0x18, 0x00, 0x00, 0x00, 0x02, 0x00, 0x00, 0x00,
  0x17, 0x00, 0x00, 0x00, 0x01, 0x00, 0x00, 0x00, 0x00, 0x00, 0x16, 0x00,
  0x18, 0x00, 0x00, 0x00, 0x14, 0x00, 0x10, 0x00, 0x0f, 0x00, 0x08, 0x00,
  0x00, 0x00, 0x00, 0x00, 0x00, 0x00, 0x04, 0x00, 0x16, 0x00, 0x00, 0x00,
  0x14, 0x00, 0x00, 0x00, 0x30, 0x00, 0x00, 0x00, 0x00, 0x00, 0x00, 0x47,
  0x34, 0x00, 0x00, 0x00, 0x38, 0x00, 0x00, 0x00, 0x05, 0x00, 0x00, 0x00,
  0x12, 0x00, 0x00, 0x00, 0x13, 0x00, 0x00, 0x00, 0x14, 0x00, 0x00, 0x00,
  0x15, 0x00, 0x00, 0x00, 0x16, 0x00, 0x00, 0x00, 0x08, 0x00, 0x0c, 0x00,
  0x0b, 0x00, 0x04, 0x00, 0x08, 0x00, 0x00, 0x00, 0x00, 0x00, 0x20, 0x41,
  0x00, 0x00, 0x00, 0x04, 0x01, 0x00, 0x00, 0x00, 0x17, 0x00, 0x00, 0x00,
  0x18, 0x00, 0x00, 0x00, 0x00, 0x00, 0x00, 0x00, 0x0f, 0x00, 0x00, 0x00,
  0x0e, 0x00, 0x00, 0x00, 0x0d, 0x00, 0x00, 0x00, 0x0c, 0x00, 0x00, 0x00,
  0x0b, 0x00, 0x00, 0x00, 0x0a, 0x00, 0x00, 0x00, 0x09, 0x00, 0x00, 0x00,
  0x08, 0x00, 0x00, 0x00, 0xff, 0xff, 0xff, 0xff, 0xff, 0xff, 0xff, 0xff,
  0xff, 0xff, 0xff, 0xff, 0x07, 0x00, 0x00, 0x00, 0x06, 0x00, 0x00, 0x00,
  0x05, 0x00, 0x00, 0x00, 0x04, 0x00, 0x00, 0x00, 0xff, 0xff, 0xff, 0xff,
  0xff, 0xff, 0xff, 0xff, 0x10, 0x00, 0x00, 0x00, 0x11, 0x00, 0x00, 0x00,
  0xff, 0xff, 0xff, 0xff, 0xff, 0xff, 0xff, 0xff, 0xff, 0xff, 0xff, 0xff,
  0xff, 0xff, 0xff, 0xff, 0x01, 0x00, 0x00, 0x00, 0x1a, 0x00, 0x00, 0x00,
  0x01, 0x00, 0x00, 0x00, 0x00, 0x00, 0x00, 0x00, 0x1b, 0x00, 0x00, 0x00,
  0x50, 0x0a, 0x00, 0x00, 0xe4, 0x09, 0x00, 0x00, 0x64, 0x09, 0x00, 0x00,
  0xf0, 0x08, 0x00, 0x00, 0x94, 0x08, 0x00, 0x00, 0x38, 0x08, 0x00, 0x00,
  0xdc, 0x07, 0x00, 0x00, 0x80, 0x07, 0x00, 0x00, 0x1c, 0x07, 0x00, 0x00,
  0xb8, 0x06, 0x00, 0x00, 0x54, 0x06, 0x00, 0x00, 0xf0, 0x05, 0x00, 0x00,
  0x8c, 0x05, 0x00, 0x00, 0x28, 0x05, 0x00, 0x00, 0xc4, 0x04, 0x00, 0x00,
  0x60, 0x04, 0x00, 0x00, 0x00, 0x04, 0x00, 0x00, 0x84, 0x03, 0x00, 0x00,
  0x48, 0x03, 0x00, 0x00, 0xf0, 0x02, 0x00, 0x00, 0xb4, 0x02, 0x00, 0x00,
  0x74, 0x02, 0x00, 0x00, 0x08, 0x02, 0x00, 0x00, 0x78, 0x01, 0x00, 0x00,
  0x04, 0x01, 0x00, 0x00, 0x70, 0x00, 0x00, 0x00, 0x04, 0x00, 0x00, 0x00,
  0x32, 0xf6, 0xff, 0xff, 0x00, 0x00, 0x00, 0x01, 0x14, 0x00, 0x00, 0x00,
  0x30, 0x00, 0x00, 0x00, 0x16, 0x00, 0x00, 0x00, 0x00, 0x00, 0x00, 0x07,
  0x44, 0x00, 0x00, 0x00, 0x1c, 0xf6, 0xff, 0xff, 0x08, 0x00, 0x00, 0x00,
  0x10, 0x00, 0x00, 0x00, 0x01, 0x00, 0x00, 0x00, 0x00, 0x00, 0x00, 0x00,
  0x00, 0x00, 0x00, 0x00, 0x01, 0x00, 0x00, 0x00, 0x00, 0x00, 0x00, 0x38,
  0x19, 0x00, 0x00, 0x00, 0x53, 0x74, 0x61, 0x74, 0x65, 0x66, 0x75, 0x6c,
  0x50, 0x61, 0x72, 0x74, 0x69, 0x74, 0x69, 0x6f, 0x6e, 0x65, 0x64, 0x43,
  0x61, 0x6c, 0x6c, 0x3a, 0x30, 0x00, 0x00, 0x00, 0x02, 0x00, 0x00, 0x00,
  0x01, 0x00, 0x00, 0x00, 0x0a, 0x00, 0x00, 0x00, 0x9a, 0xf6, 0xff, 0xff,
  0x00, 0x00, 0x00, 0x01, 0x14, 0x00, 0x00, 0x00, 0x34, 0x00, 0x00, 0x00,
  0x15, 0x00, 0x00, 0x00, 0x00, 0x00, 0x00, 0x07, 0x6c, 0x00, 0x00, 0x00,
  0x84, 0xf6, 0xff, 0xff, 0x08, 0x00, 0x00, 0x00, 0x14, 0x00, 0x00, 0x00,
  0x01, 0x00, 0x00, 0x00, 0x00, 0x00, 0x00, 0x00, 0x00, 0x00, 0x00, 0x00,
  0x00, 0x00, 0x00, 0x00, 0x01, 0x00, 0x00, 0x00, 0x70, 0x00, 0x36, 0x3a,
  0x3e, 0x00, 0x00, 0x00, 0x6d, 0x6f, 0x64, 0x65, 0x6c, 0x2f, 0x73, 0x65,
  0x71, 0x75, 0x65, 0x6e, 0x74, 0x69, 0x61, 0x6c, 0x2f, 0x6f, 0x75, 0x74,
  0x70, 0x75, 0x74, 0x2f, 0x4d, 0x61, 0x74, 0x4d, 0x75, 0x6c, 0x3b, 0x6d,
  0x6f, 0x64, 0x65, 0x6c, 0x2f, 0x73, 0x65, 0x71, 0x75, 0x65, 0x6e, 0x74,
  0x69, 0x61, 0x6c, 0x2f, 0x6f, 0x75, 0x74, 0x70, 0x75, 0x74, 0x2f, 0x42,
  0x69, 0x61, 0x73, 0x41, 0x64, 0x64, 0x00, 0x00, 0x02, 0x00, 0x00, 0x00,
  0x01, 0x00, 0x00, 0x00, 0x0a, 0x00, 0x00, 0x00, 0x2a, 0xf7, 0xff, 0xff,
  0x00, 0x00, 0x00, 0x01, 0x14, 0x00, 0x00, 0x00, 0x30, 0x00, 0x00, 0x00,
  0x14, 0x00, 0x00, 0x00, 0x00, 0x00, 0x00, 0x07, 0x4c, 0x00, 0x00, 0x00,
  0x14, 0xf7, 0xff, 0xff, 0x08, 0x00, 0x00, 0x00, 0x10, 0x00, 0x00, 0x00,
  0x01, 0x00, 0x00, 0x00, 0x00, 0x00, 0x00, 0x00, 0x00, 0x00, 0x00, 0x00,
  0x01, 0x00, 0x00, 0x00, 0x01, 0x13, 0x00, 0x38, 0x20, 0x00, 0x00, 0x00,
  0x6d, 0x6f, 0x64, 0x65, 0x6c, 0x2f, 0x73, 0x65, 0x71, 0x75, 0x65, 0x6e,
  0x74, 0x69, 0x61, 0x6c, 0x2f, 0x66, 0x6c, 0x61, 0x74, 0x74, 0x65, 0x6e,
  0x2f, 0x52, 0x65, 0x73, 0x68, 0x61, 0x70, 0x65, 0x00, 0x00, 0x00, 0x00,
  0x02, 0x00, 0x00, 0x00, 0x01, 0x00, 0x00, 0x00, 0x30, 0x02, 0x00, 0x00,
  0x9a, 0xf7, 0xff, 0xff, 0x00, 0x00, 0x00, 0x01, 0x14, 0x00, 0x00, 0x00,
  0x30, 0x00, 0x00, 0x00, 0x13, 0x00, 0x00, 0x00, 0x00, 0x00, 0x00, 0x07,
  0x4c, 0x00, 0x00, 0x00, 0x84, 0xf7, 0xff, 0xff, 0x08, 0x00, 0x00, 0x00,
  0x10, 0x00, 0x00, 0x00, 0x01, 0x00, 0x00, 0x00, 0x00, 0x00, 0x00, 0x00,
  0x00, 0x00, 0x00, 0x00, 0x01, 0x00, 0x00, 0x00, 0x01, 0x13, 0x00, 0x38,
  0x20, 0x00, 0x00, 0x00, 0x74, 0x66, 0x6c, 0x2e, 0x75, 0x6e, 0x69, 0x64,
  0x69, 0x72, 0x65, 0x63, 0x74, 0x69, 0x6f, 0x6e, 0x61, 0x6c, 0x5f, 0x73,
  0x65, 0x71, 0x75, 0x65, 0x6e, 0x63, 0x65, 0x5f, 0x6c, 0x73, 0x74, 0x6d,
  0x00, 0x00, 0x00, 0x00, 0x03, 0x00, 0x00, 0x00, 0x01, 0x00, 0x00, 0x00,
  0x1c, 0x00, 0x00, 0x00, 0x14, 0x00, 0x00, 0x00, 0x00, 0x00, 0x16, 0x00,
  0x18, 0x00, 0x14, 0x00, 0x13, 0x00, 0x00, 0x00, 0x0c, 0x00, 0x08, 0x00,
  0x00, 0x00, 0x00, 0x00, 0x00, 0x00, 0x07, 0x00, 0x16, 0x00, 0x00, 0x00,
  0x00, 0x00, 0x00, 0x01, 0x10, 0x00, 0x00, 0x00, 0x2c, 0x00, 0x00, 0x00,
  0x00, 0x00, 0x00, 0x07, 0x4c, 0x00, 0x00, 0x00, 0x0c, 0xf8, 0xff, 0xff,
  0x08, 0x00, 0x00, 0x00, 0x10, 0x00, 0x00, 0x00, 0x01, 0x00, 0x00, 0x00,
  0x00, 0x00, 0x00, 0x00, 0x00, 0x00, 0x00, 0x00, 0x01, 0x00, 0x00, 0x00,
  0x01, 0x13, 0x00, 0x38, 0x23, 0x00, 0x00, 0x00, 0x65, 0x66, 0x66, 0x65,
  0x63, 0x74, 0x69, 0x76, 0x65, 0x5f, 0x68, 0x69, 0x64, 0x64, 0x65, 0x6e,
  0x5f, 0x73, 0x63, 0x61, 0x6c, 0x65, 0x5f, 0x69, 0x6e, 0x74, 0x65, 0x72,
  0x6d, 0x65, 0x64, 0x69, 0x61, 0x74, 0x65, 0x00, 0x01, 0x00, 0x00, 0x00,
  0x00, 0x00, 0x00, 0x00, 0x4e, 0xff, 0xff, 0xff, 0x00, 0x00, 0x00, 0x01,
  0x08, 0x00, 0x00, 0x00, 0x28, 0x00, 0x00, 0x00, 0x1c, 0x00, 0x00, 0x00,
  0x69, 0x6e, 0x70, 0x75, 0x74, 0x5f, 0x74, 0x6f, 0x5f, 0x6f, 0x75, 0x74,
  0x70, 0x75, 0x74, 0x5f, 0x69, 0x6e, 0x74, 0x65, 0x72, 0x6d, 0x65, 0x64,
  0x69, 0x61, 0x74, 0x65, 0x00, 0x00, 0x00, 0x00, 0x01, 0x00, 0x00, 0x00,
  0x00, 0x00, 0x00, 0x00, 0x8a, 0xff, 0xff, 0xff, 0x00, 0x00, 0x00, 0x01,
  0x08, 0x00, 0x00, 0x00, 0x24, 0x00, 0x00, 0x00, 0x1a, 0x00, 0x00, 0x00,
  0x69, 0x6e, 0x70, 0x75, 0x74, 0x5f, 0x74, 0x6f, 0x5f, 0x63, 0x65, 0x6c,
  0x6c, 0x5f, 0x69, 0x6e, 0x74, 0x65, 0x72, 0x6d, 0x65, 0x64, 0x69, 0x61,
  0x74, 0x65, 0x00, 0x00, 0x01, 0x00, 0x00, 0x00, 0x00, 0x00, 0x00, 0x00,
  0xc2, 0xff, 0xff, 0xff, 0x00, 0x00, 0x00, 0x01, 0x08, 0x00, 0x00, 0x00,
  0x28, 0x00, 0x00, 0x00, 0x1c, 0x00, 0x00, 0x00, 0x69, 0x6e, 0x70, 0x75,
  0x74, 0x5f, 0x74, 0x6f, 0x5f, 0x66, 0x6f, 0x72, 0x67, 0x65, 0x74, 0x5f,
  0x69, 0x6e, 0x74, 0x65, 0x72, 0x6d, 0x65, 0x64, 0x69, 0x61, 0x74, 0x65,
  0x00, 0x00, 0x00, 0x00, 0x01, 0x00, 0x00, 0x00, 0x00, 0x00, 0x00, 0x00,
  0x00, 0x00, 0x16, 0x00, 0x10, 0x00, 0x0c, 0x00, 0x00, 0x00, 0x00, 0x00,
  0x08, 0x00, 0x00, 0x00, 0x00, 0x00, 0x00, 0x00, 0x00, 0x00, 0x07, 0x00,
  0x16, 0x00, 0x00, 0x00, 0x00, 0x00, 0x00, 0x01, 0x08, 0x00, 0x00, 0x00,
  0x24, 0x00, 0x00, 0x00, 0x1b, 0x00, 0x00, 0x00, 0x69, 0x6e, 0x70, 0x75,
  0x74, 0x5f, 0x74, 0x6f, 0x5f, 0x69, 0x6e, 0x70, 0x75, 0x74, 0x5f, 0x69,
  0x6e, 0x74, 0x65, 0x72, 0x6d, 0x65, 0x64, 0x69, 0x61, 0x74, 0x65, 0x00,
  0x01, 0x00, 0x00, 0x00, 0x00, 0x00, 0x00, 0x00, 0x9e, 0xff, 0xff, 0xff,
  0x00, 0x00, 0x01, 0x01, 0x10, 0x00, 0x00, 0x00, 0x30, 0x00, 0x00, 0x00,
  0x00, 0x00, 0x00, 0x07, 0x40, 0x00, 0x00, 0x00, 0x74, 0xf9, 0xff, 0xff,
  0x08, 0x00, 0x00, 0x00, 0x14, 0x00, 0x00, 0x00, 0x01, 0x00, 0x00, 0x00,
  0x00, 0x00, 0x00, 0x00, 0x00, 0x00, 0x00, 0x00, 0x00, 0x00, 0x00, 0x00,
  0x01, 0x00, 0x00, 0x00, 0x00, 0x00, 0x80, 0x39, 0x12, 0x00, 0x00, 0x00,
  0x74, 0x66, 0x6c, 0x2e, 0x70, 0x73, 0x65, 0x75, 0x64, 0x6f, 0x5f, 0x71,
  0x63, 0x6f, 0x6e, 0x73, 0x74, 0x31, 0x00, 0x00, 0x02, 0x00, 0x00, 0x00,
  0x01, 0x00, 0x00, 0x00, 0x14, 0x00, 0x00, 0x00, 0x00, 0x00, 0x16, 0x00,
  0x18, 0x00, 0x14, 0x00, 0x13, 0x00, 0x00, 0x00, 0x0c, 0x00, 0x08, 0x00,
  0x07, 0x00, 0x00, 0x00, 0x00, 0x00, 0x06, 0x00, 0x16, 0x00, 0x00, 0x00,
  0x00, 0x00, 0x01, 0x01, 0x10, 0x00, 0x00, 0x00, 0x2c, 0x00, 0x00, 0x00,
  0x00, 0x00, 0x00, 0x07, 0x3c, 0x00, 0x00, 0x00, 0xec, 0xf9, 0xff, 0xff,
  0x08, 0x00, 0x00, 0x00, 0x10, 0x00, 0x00, 0x00, 0x01, 0x00, 0x00, 0x00,
  0x00, 0x00, 0x00, 0x00, 0x00, 0x00, 0x00, 0x00, 0x01, 0x00, 0x00, 0x00,
  0x01, 0x13, 0x00, 0x38, 0x11, 0x00, 0x00, 0x00, 0x74, 0x66, 0x6c, 0x2e,
  0x70, 0x73, 0x65, 0x75, 0x64, 0x6f, 0x5f, 0x71, 0x63, 0x6f, 0x6e, 0x73,
  0x74, 0x00, 0x00, 0x00, 0x02, 0x00, 0x00, 0x00, 0x01, 0x00, 0x00, 0x00,
  0x14, 0x00, 0x00, 0x00, 0x62, 0xfa, 0xff, 0xff, 0x00, 0x00, 0x00, 0x01,
  0x14, 0x00, 0x00, 0x00, 0x30, 0x00, 0x00, 0x00, 0x10, 0x00, 0x00, 0x00,
  0x00, 0x00, 0x00, 0x09, 0x3c, 0x00, 0x00, 0x00, 0x4c, 0xfa, 0xff, 0xff,
  0x08, 0x00, 0x00, 0x00, 0x10, 0x00, 0x00, 0x00, 0x01, 0x00, 0x00, 0x00,
  0x00, 0x00, 0x00, 0x00, 0x00, 0x00, 0x00, 0x00, 0x01, 0x00, 0x00, 0x00,
  0x2d, 0x3c, 0x13, 0x3c, 0x10, 0x00, 0x00, 0x00, 0x61, 0x72, 0x69, 0x74,
  0x68, 0x2e, 0x63, 0x6f, 0x6e, 0x73, 0x74, 0x61, 0x6e, 0x74, 0x31, 0x31,
  0x00, 0x00, 0x00, 0x00, 0x02, 0x00, 0x00, 0x00, 0x14, 0x00, 0x00, 0x00,
  0x1c, 0x00, 0x00, 0x00, 0xc2, 0xfa, 0xff, 0xff, 0x00, 0x00, 0x00, 0x01,
  0x14, 0x00, 0x00, 0x00, 0x30, 0x00, 0x00, 0x00, 0x0f, 0x00, 0x00, 0x00,
  0x00, 0x00, 0x00, 0x09, 0x3c, 0x00, 0x00, 0x00, 0xac, 0xfa, 0xff, 0xff,
  0x08, 0x00, 0x00, 0x00, 0x10, 0x00, 0x00, 0x00, 0x01, 0x00, 0x00, 0x00,
  0x00, 0x00, 0x00, 0x00, 0x00, 0x00, 0x00, 0x00, 0x01, 0x00, 0x00, 0x00,
  0x44, 0x84, 0xf2, 0x3b, 0x10, 0x00, 0x00, 0x00, 0x61, 0x72, 0x69, 0x74,
  0x68, 0x2e, 0x63, 0x6f, 0x6e, 0x73, 0x74, 0x61, 0x6e, 0x74, 0x31, 0x30,
  0x00, 0x00, 0x00, 0x00, 0x02, 0x00, 0x00, 0x00, 0x14, 0x00, 0x00, 0x00,
  0x1c, 0x00, 0x00, 0x00, 0x22, 0xfb, 0xff, 0xff, 0x00, 0x00, 0x00, 0x01,
  0x14, 0x00, 0x00, 0x00, 0x34, 0x00, 0x00, 0x00, 0x0e, 0x00, 0x00, 0x00,
  0x00, 0x00, 0x00, 0x09, 0x3c, 0x00, 0x00, 0x00, 0x0c, 0xfb, 0xff, 0xff,
  0x08, 0x00, 0x00, 0x00, 0x14, 0x00, 0x00, 0x00, 0x01, 0x00, 0x00, 0x00,
  0x00, 0x00, 0x00, 0x00, 0x00, 0x00, 0x00, 0x00, 0x00, 0x00, 0x00, 0x00,
  0x01, 0x00, 0x00, 0x00, 0x43, 0x78, 0x19, 0x3c, 0x0f, 0x00, 0x00, 0x00,
  0x61, 0x72, 0x69, 0x74, 0x68, 0x2e, 0x63, 0x6f, 0x6e, 0x73, 0x74, 0x61,
  0x6e, 0x74, 0x39, 0x00, 0x02, 0x00, 0x00, 0x00, 0x14, 0x00, 0x00, 0x00,
  0x1c, 0x00, 0x00, 0x00, 0x82, 0xfb, 0xff, 0xff, 0x00, 0x00, 0x00, 0x01,
  0x14, 0x00, 0x00, 0x00, 0x34, 0x00, 0x00, 0x00, 0x0d, 0x00, 0x00, 0x00,
  0x00, 0x00, 0x00, 0x09, 0x3c, 0x00, 0x00, 0x00, 0x6c, 0xfb, 0xff, 0xff,
  0x08, 0x00, 0x00, 0x00, 0x14, 0x00, 0x00, 0x00, 0x01, 0x00, 0x00, 0x00,
  0x00, 0x00, 0x00, 0x00, 0x00, 0x00, 0x00, 0x00, 0x00, 0x00, 0x00, 0x00,
  0x01, 0x00, 0x00, 0x00, 0xde, 0xf6, 0x40, 0x3c, 0x0f, 0x00, 0x00, 0x00,
  0x61, 0x72, 0x69, 0x74, 0x68, 0x2e, 0x63, 0x6f, 0x6e, 0x73, 0x74, 0x61,
  0x6e, 0x74, 0x38, 0x00, 0x02, 0x00, 0x00, 0x00, 0x14, 0x00, 0x00, 0x00,
  0x1c, 0x00, 0x00, 0x00, 0xe2, 0xfb, 0xff, 0xff, 0x00, 0x00, 0x00, 0x01,
  0x14, 0x00, 0x00, 0x00, 0x34, 0x00, 0x00, 0x00, 0x0c, 0x00, 0x00, 0x00,
  0x00, 0x00, 0x00, 0x09, 0x3c, 0x00, 0x00, 0x00, 0xcc, 0xfb, 0xff, 0xff,
  0x08, 0x00, 0x00, 0x00, 0x14, 0x00, 0x00, 0x00, 0x01, 0x00, 0x00, 0x00,
  0x00, 0x00, 0x00, 0x00, 0x00, 0x00, 0x00, 0x00, 0x00, 0x00, 0x00, 0x00,
  0x01, 0x00, 0x00, 0x00, 0xf1, 0x21, 0x18, 0x3c, 0x0f, 0x00, 0x00, 0x00,
  0x61, 0x72, 0x69, 0x74, 0x68, 0x2e, 0x63, 0x6f, 0x6e, 0x73, 0x74, 0x61,
  0x6e, 0x74, 0x33, 0x00, 0x02, 0x00, 0x00, 0x00, 0x14, 0x00, 0x00, 0x00,
  0x14, 0x00, 0x00, 0x00, 0x42, 0xfc, 0xff, 0xff, 0x00, 0x00, 0x00, 0x01,
  0x14, 0x00, 0x00, 0x00, 0x34, 0x00, 0x00, 0x00, 0x0b, 0x00, 0x00, 0x00,
  0x00, 0x00, 0x00, 0x09, 0x3c, 0x00, 0x00, 0x00, 0x2c, 0xfc, 0xff, 0xff,
  0x08, 0x00, 0x00, 0x00, 0x14, 0x00, 0x00, 0x00, 0x01, 0x00, 0x00, 0x00,
  0x00, 0x00, 0x00, 0x00, 0x00, 0x00, 0x00, 0x00, 0x00, 0x00, 0x00, 0x00,
  0x01, 0x00, 0x00, 0x00, 0xca, 0x82, 0xbd, 0x3b, 0x0f, 0x00, 0x00, 0x00,
  0x61, 0x72, 0x69, 0x74, 0x68, 0x2e, 0x63, 0x6f, 0x6e, 0x73, 0x74, 0x61,
  0x6e, 0x74, 0x32, 0x00, 0x02, 0x00, 0x00, 0x00, 0x14, 0x00, 0x00, 0x00,
  0x14, 0x00, 0x00, 0x00, 0xa2, 0xfc, 0xff, 0xff, 0x00, 0x00, 0x00, 0x01,
  0x14, 0x00, 0x00, 0x00, 0x34, 0x00, 0x00, 0x00, 0x0a, 0x00, 0x00, 0x00,
  0x00, 0x00, 0x00, 0x09, 0x3c, 0x00, 0x00, 0x00, 0x8c, 0xfc, 0xff, 0xff,
  0x08, 0x00, 0x00, 0x00, 0x14, 0x00, 0x00, 0x00, 0x01, 0x00, 0x00, 0x00,
  0x00, 0x00, 0x00, 0x00, 0x00, 0x00, 0x00, 0x00, 0x00, 0x00, 0x00, 0x00,
  0x01, 0x00, 0x00, 0x00, 0x0b, 0x0a, 0xa2, 0x3b, 0x0f, 0x00, 0x00, 0x00,
  0x61, 0x72, 0x69, 0x74, 0x68, 0x2e, 0x63, 0x6f, 0x6e, 0x73, 0x74, 0x61,
  0x6e, 0x74, 0x31, 0x00, 0x02, 0x00, 0x00, 0x00, 0x14, 0x00, 0x00, 0x00,
  0x14, 0x00, 0x00, 0x00, 0x02, 0xfd, 0xff, 0xff, 0x00, 0x00, 0x00, 0x01,
  0x14, 0x00, 0x00, 0x00, 0x34, 0x00, 0x00, 0x00, 0x09, 0x00, 0x00, 0x00,
  0x00, 0x00, 0x00, 0x09, 0x3c, 0x00, 0x00, 0x00, 0xec, 0xfc, 0xff, 0xff,
  0x08, 0x00, 0x00, 0x00, 0x14, 0x00, 0x00, 0x00, 0x01, 0x00, 0x00, 0x00,
  0x00, 0x00, 0x00, 0x00, 0x00, 0x00, 0x00, 0x00, 0x00, 0x00, 0x00, 0x00,
  0x01, 0x00, 0x00, 0x00, 0x74, 0xcb, 0x06, 0x3c, 0x0e, 0x00, 0x00, 0x00,
  0x61, 0x72, 0x69, 0x74, 0x68, 0x2e, 0x63, 0x6f, 0x6e, 0x73, 0x74, 0x61,
  0x6e, 0x74, 0x00, 0x00, 0x02, 0x00, 0x00, 0x00, 0x14, 0x00, 0x00, 0x00,
  0x14, 0x00, 0x00, 0x00, 0x62, 0xfd, 0xff, 0xff, 0x00, 0x00, 0x00, 0x01,
  0x14, 0x00, 0x00, 0x00, 0x30, 0x00, 0x00, 0x00, 0x08, 0x00, 0x00, 0x00,
  0x00, 0x00, 0x00, 0x04, 0x38, 0x00, 0x00, 0x00, 0x4c, 0xfd, 0xff, 0xff,
  0x08, 0x00, 0x00, 0x00, 0x10, 0x00, 0x00, 0x00, 0x01, 0x00, 0x00, 0x00,
  0x00, 0x00, 0x00, 0x00, 0x00, 0x00, 0x00, 0x00, 0x01, 0x00, 0x00, 0x00,
  0x25, 0xd1, 0x93, 0x34, 0x0f, 0x00, 0x00, 0x00, 0x61, 0x72, 0x69, 0x74,
  0x68, 0x2e, 0x63, 0x6f, 0x6e, 0x73, 0x74, 0x61, 0x6e, 0x74, 0x37, 0x00,
  0x01, 0x00, 0x00, 0x00, 0x14, 0x00, 0x00, 0x00, 0xba, 0xfd, 0xff, 0xff,
  0x00, 0x00, 0x00, 0x01, 0x14, 0x00, 0x00, 0x00, 0x30, 0x00, 0x00, 0x00,
  0x07, 0x00, 0x00, 0x00, 0x00, 0x00, 0x00, 0x04, 0x38, 0x00, 0x00, 0x00,
  0xa4, 0xfd, 0xff, 0xff, 0x08, 0x00, 0x00, 0x00, 0x10, 0x00, 0x00, 0x00,
  0x01, 0x00, 0x00, 0x00, 0x00, 0x00, 0x00, 0x00, 0x00, 0x00, 0x00, 0x00,
  0x01, 0x00, 0x00, 0x00, 0xa4, 0x79, 0x73, 0x34, 0x0f, 0x00, 0x00, 0x00,
  0x61, 0x72, 0x69, 0x74, 0x68, 0x2e, 0x63, 0x6f, 0x6e, 0x73, 0x74, 0x61,
  0x6e, 0x74, 0x36, 0x00, 0x01, 0x00, 0x00, 0x00, 0x14, 0x00, 0x00, 0x00,
  0x12, 0xfe, 0xff, 0xff, 0x00, 0x00, 0x00, 0x01, 0x14, 0x00, 0x00, 0x00,
  0x30, 0x00, 0x00, 0x00, 0x06, 0x00, 0x00, 0x00, 0x00, 0x00, 0x00, 0x04,
  0x38, 0x00, 0x00, 0x00, 0xfc, 0xfd, 0xff, 0xff, 0x08, 0x00, 0x00, 0x00,
  0x10, 0x00, 0x00, 0x00, 0x01, 0x00, 0x00, 0x00, 0x00, 0x00, 0x00, 0x00,
  0x00, 0x00, 0x00, 0x00, 0x01, 0x00, 0x00, 0x00, 0x8a, 0x13, 0x9a, 0x34,
  0x0f, 0x00, 0x00, 0x00, 0x61, 0x72, 0x69, 0x74, 0x68, 0x2e, 0x63, 0x6f,
  0x6e, 0x73, 0x74, 0x61, 0x6e, 0x74, 0x35, 0x00, 0x01, 0x00, 0x00, 0x00,
  0x14, 0x00, 0x00, 0x00, 0x6a, 0xfe, 0xff, 0xff, 0x00, 0x00, 0x00, 0x01,
  0x14, 0x00, 0x00, 0x00, 0x30, 0x00, 0x00, 0x00, 0x05, 0x00, 0x00, 0x00,
  0x00, 0x00, 0x00, 0x04, 0x38, 0x00, 0x00, 0x00, 0x54, 0xfe, 0xff, 0xff,
  0x08, 0x00, 0x00, 0x00, 0x10, 0x00, 0x00, 0x00, 0x01, 0x00, 0x00, 0x00,
  0x00, 0x00, 0x00, 0x00, 0x00, 0x00, 0x00, 0x00, 0x01, 0x00, 0x00, 0x00,
  0x1b, 0xba, 0xc1, 0x34, 0x0f, 0x00, 0x00, 0x00, 0x61, 0x72, 0x69, 0x74,
  0x68, 0x2e, 0x63, 0x6f, 0x6e, 0x73, 0x74, 0x61, 0x6e, 0x74, 0x34, 0x00,
  0x01, 0x00, 0x00, 0x00, 0x14, 0x00, 0x00, 0x00, 0xc2, 0xfe, 0xff, 0xff,
  0x00, 0x00, 0x00, 0x01, 0x14, 0x00, 0x00, 0x00, 0x34, 0x00, 0x00, 0x00,
  0x04, 0x00, 0x00, 0x00, 0x00, 0x00, 0x00, 0x09, 0x4c, 0x00, 0x00, 0x00,
  0xac, 0xfe, 0xff, 0xff, 0x08, 0x00, 0x00, 0x00, 0x14, 0x00, 0x00, 0x00,
  0x01, 0x00, 0x00, 0x00, 0x00, 0x00, 0x00, 0x00, 0x00, 0x00, 0x00, 0x00,
  0x00, 0x00, 0x00, 0x00, 0x01, 0x00, 0x00, 0x00, 0x46, 0xc7, 0x0a, 0x3c,
  0x1e, 0x00, 0x00, 0x00, 0x6d, 0x6f, 0x64, 0x65, 0x6c, 0x2f, 0x73, 0x65,
  0x71, 0x75, 0x65, 0x6e, 0x74, 0x69, 0x61, 0x6c, 0x2f, 0x6f, 0x75, 0x74,
  0x70, 0x75, 0x74, 0x2f, 0x4d, 0x61, 0x74, 0x4d, 0x75, 0x6c, 0x00, 0x00,
  0x02, 0x00, 0x00, 0x00, 0x0a, 0x00, 0x00, 0x00, 0x30, 0x02, 0x00, 0x00,
  0x32, 0xff, 0xff, 0xff, 0x00, 0x00, 0x00, 0x01, 0x14, 0x00, 0x00, 0x00,
  0x34, 0x00, 0x00, 0x00, 0x03, 0x00, 0x00, 0x00, 0x00, 0x00, 0x00, 0x04,
  0x5c, 0x00, 0x00, 0x00, 0x1c, 0xff, 0xff, 0xff, 0x08, 0x00, 0x00, 0x00,
  0x14, 0x00, 0x00, 0x00, 0x01, 0x00, 0x00, 0x00, 0x00, 0x00, 0x00, 0x00,
  0x00, 0x00, 0x00, 0x00, 0x00, 0x00, 0x00, 0x00, 0x01, 0x00, 0x00, 0x00,
  0xe1, 0xdb, 0x8a, 0x34, 0x2e, 0x00, 0x00, 0x00, 0x6d, 0x6f, 0x64, 0x65,
  0x6c, 0x2f, 0x73, 0x65, 0x71, 0x75, 0x65, 0x6e, 0x74, 0x69, 0x61, 0x6c,
  0x2f, 0x6f, 0x75, 0x74, 0x70, 0x75, 0x74, 0x2f, 0x42, 0x69, 0x61, 0x73,
  0x41, 0x64, 0x64, 0x2f, 0x52, 0x65, 0x61, 0x64, 0x56, 0x61, 0x72, 0x69,
  0x61, 0x62, 0x6c, 0x65, 0x4f, 0x70, 0x00, 0x00, 0x01, 0x00, 0x00, 0x00,
  0x0a, 0x00, 0x00, 0x00, 0xae, 0xff, 0xff, 0xff, 0x00, 0x00, 0x00, 0x01,
  0x18, 0x00, 0x00, 0x00, 0x18, 0x00, 0x00, 0x00, 0x02, 0x00, 0x00, 0x00,
  0x00, 0x00, 0x00, 0x02, 0x30, 0x00, 0x00, 0x00, 0x04, 0x00, 0x04, 0x00,
  0x04, 0x00, 0x00, 0x00, 0x1e, 0x00, 0x00, 0x00, 0x6d, 0x6f, 0x64, 0x65,
  0x6c, 0x2f, 0x73, 0x65, 0x71, 0x75, 0x65, 0x6e, 0x74, 0x69, 0x61, 0x6c,
  0x2f, 0x66, 0x6c, 0x61, 0x74, 0x74, 0x65, 0x6e, 0x2f, 0x43, 0x6f, 0x6e,
  0x73, 0x74, 0x00, 0x00, 0x01, 0x00, 0x00, 0x00, 0x02, 0x00, 0x00, 0x00,
  0x00, 0x00, 0x16, 0x00, 0x1c, 0x00, 0x18, 0x00, 0x17, 0x00, 0x10, 0x00,
  0x0c, 0x00, 0x08, 0x00, 0x00, 0x00, 0x00, 0x00, 0x00, 0x00, 0x07, 0x00,
  0x16, 0x00, 0x00, 0x00, 0x00, 0x00, 0x00, 0x01, 0x20, 0x00, 0x00, 0x00,
  0x3c, 0x00, 0x00, 0x00, 0x01, 0x00, 0x00, 0x00, 0x00, 0x00, 0x00, 0x07,
  0x54, 0x00, 0x00, 0x00, 0x0c, 0x00, 0x0c, 0x00, 0x00, 0x00, 0x00, 0x00,
  0x08, 0x00, 0x04, 0x00, 0x0c, 0x00, 0x00, 0x00, 0x08, 0x00, 0x00, 0x00,
  0x10, 0x00, 0x00, 0x00, 0x01, 0x00, 0x00, 0x00, 0x00, 0x00, 0x00, 0x00,
  0x00, 0x00, 0x00, 0x00, 0x01, 0x00, 0x00, 0x00, 0x82, 0x81, 0x00, 0x38,
  0x1d, 0x00, 0x00, 0x00, 0x73, 0x65, 0x72, 0x76, 0x69, 0x6e, 0x67, 0x5f,
  0x64, 0x65, 0x66, 0x61, 0x75, 0x6c, 0x74, 0x5f, 0x66, 0x69, 0x78, 0x65,
  0x64, 0x5f, 0x69, 0x6e, 0x70, 0x75, 0x74, 0x3a, 0x30, 0x00, 0x00, 0x00,
  0x03, 0x00, 0x00, 0x00, 0x01, 0x00, 0x00, 0x00, 0x1c, 0x00, 0x00, 0x00,
  0x1c, 0x00, 0x00, 0x00, 0x04, 0x00, 0x00, 0x00, 0x54, 0x00, 0x00, 0x00,
  0x38, 0x00, 0x00, 0x00, 0x24, 0x00, 0x00, 0x00, 0x04, 0x00, 0x00, 0x00,
  0xf0, 0xff, 0xff, 0xff, 0x19, 0x00, 0x00, 0x00, 0x02, 0x00, 0x00, 0x00,
  0x00, 0x00, 0x00, 0x19, 0x0c, 0x00, 0x10, 0x00, 0x0f, 0x00, 0x00, 0x00,
  0x08, 0x00, 0x04, 0x00, 0x0c, 0x00, 0x00, 0x00, 0x09, 0x00, 0x00, 0x00,
  0x04, 0x00, 0x00, 0x00, 0x00, 0x00, 0x00, 0x09, 0xf4, 0xff, 0xff, 0xff,
  0x16, 0x00, 0x00, 0x00, 0x00, 0x00, 0x00, 0x16, 0x0c, 0x00, 0x0c, 0x00,
  0x0b, 0x00, 0x00, 0x00, 0x00, 0x00, 0x04, 0x00, 0x0c, 0x00, 0x00, 0x00,
  0x2c, 0x00, 0x00, 0x00, 0x00, 0x00, 0x00, 0x2c
};
unsigned int model_tflite_len = 14312;
#endif
